{
  "version": "1.0",
  "truncation": {
    "direction": "Right",
    "max_length": 128,
    "strategy": "LongestFirst",
    "stride": 0
  },
  "padding": {
    "strategy": {
      "Fixed": 128
    },
    "direction": "Right",
    "pad_to_multiple_of": null,
    "pad_id": 0,
    "pad_type_id": 0,
    "pad_token": "[PAD]"
  },
  "added_tokens": [
    {
      "id": 0,
      "content": "[PAD]",
      "single_word": false,
      "lstrip": false,
      "rstrip": false,
      "normalized": false,
      "special": true
    },
    {
      "id": 1,
      "content": "[UNK]",
      "single_word": false,
      "lstrip": false,
      "rstrip": false,
      "normalized": false,
      "special": true
    },
    {
      "id": 2,
      "content": "[CLS]",
      "single_word": false,
      "lstrip": false,
      "rstrip": false,
      "normalized": false,
      "special": true
    },
    {
      "id": 3,
      "content": "[SEP]",
      "single_word": false,
      "lstrip": false,
      "rstrip": false,
      "normalized": false,
      "special": true
    },
    {
      "id": 4,
      "content": "[MASK]",
      "single_word": false,
      "lstrip": false,
      "rstrip": false,
      "normalized": false,
      "special": true
    }
  ],
  "normalizer": {
    "type": "BertNormalizer",
    "clean_text": true,
    "handle_chinese_chars": true,
    "strip_accents": null,
    "lowercase": true
  },
  "pre_tokenizer": {
    "type": "BertPreTokenizer"
  },
  "post_processor": {
    "type": "TemplateProcessing",
    "single": [
      {
        "SpecialToken": {
          "id": "[CLS]",
          "type_id": 0
        }
      },
      {
        "Sequence": {
          "id": "A",
          "type_id": 0
        }
      },
      {
        "SpecialToken": {
          "id": "[SEP]",
          "type_id": 0
        }
      }
    ],
    "pair": [
      {
        "SpecialToken": {
          "id": "[CLS]",
          "type_id": 0
        }
      },
      {
        "Sequence": {
          "id": "A",
          "type_id": 0
        }
      },
      {
        "SpecialToken": {
          "id": "[SEP]",
          "type_id": 0
        }
      },
      {
        "Sequence": {
          "id": "B",
          "type_id": 1
        }
      },
      {
        "SpecialToken": {
          "id": "[SEP]",
          "type_id": 1
        }
      }
    ],
    "special_tokens": {
      "[CLS]": {
        "id": "[CLS]",
        "ids": [
          2
        ],
        "tokens": [
          "[CLS]"
        ]
      },
      "[SEP]": {
        "id": "[SEP]",
        "ids": [
          3
        ],
        "tokens": [
          "[SEP]"
        ]
      }
    }
  },
  "decoder": {
    "type": "WordPiece",
    "prefix": "##",
    "cleanup": true
  },
  "model": {
    "type": "WordPiece",
    "unk_token": "[UNK]",
    "continuing_subword_prefix": "##",
    "max_input_chars_per_word": 100,
    "vocab": {
      "[PAD]": 0,
      "[UNK]": 1,
      "[CLS]": 2,
      "[SEP]": 3,
      "[MASK]": 4,
      "<S>": 5,
      "<T>": 6,
      "!": 7,
      "\"": 8,
      "#": 9,
      "$": 10,
      "%": 11,
      "&": 12,
      "'": 13,
      "(": 14,
      ")": 15,
      "*": 16,
      "+": 17,
      ",": 18,
      "-": 19,
      ".": 20,
      "/": 21,
      "0": 22,
      "1": 23,
      "2": 24,
      "3": 25,
      "4": 26,
      "5": 27,
      "6": 28,
      "7": 29,
      "8": 30,
      "9": 31,
      ":": 32,
      ";": 33,
      "<": 34,
      "=": 35,
      ">": 36,
      "?": 37,
      "@": 38,
      "[": 39,
      "\\": 40,
      "]": 41,
      "^": 42,
      "_": 43,
      "`": 44,
      "a": 45,
      "b": 46,
      "c": 47,
      "d": 48,
      "e": 49,
      "f": 50,
      "g": 51,
      "h": 52,
      "i": 53,
      "j": 54,
      "k": 55,
      "l": 56,
      "m": 57,
      "n": 58,
      "o": 59,
      "p": 60,
      "q": 61,
      "r": 62,
      "s": 63,
      "t": 64,
      "u": 65,
      "v": 66,
      "w": 67,
      "x": 68,
      "y": 69,
      "z": 70,
      "{": 71,
      "|": 72,
      "}": 73,
      "~": 74,
      "«": 75,
      "°": 76,
      "²": 77,
      "´": 78,
      "·": 79,
      "»": 80,
      "¿": 81,
      "×": 82,
      "ß": 83,
      "æ": 84,
      "ð": 85,
      "ø": 86,
      "đ": 87,
      "ı": 88,
      "ł": 89,
      "ŋ": 90,
      "œ": 91,
      "ə": 92,
      "ɞ": 93,
      "ʚ": 94,
      "α": 95,
      "ε": 96,
      "ι": 97,
      "ο": 98,
      "ω": 99,
      "а": 100,
      "б": 101,
      "в": 102,
      "г": 103,
      "д": 104,
      "е": 105,
      "ж": 106,
      "з": 107,
      "и": 108,
      "к": 109,
      "л": 110,
      "м": 111,
      "н": 112,
      "о": 113,
      "п": 114,
      "р": 115,
      "с": 116,
      "т": 117,
      "у": 118,
      "ф": 119,
      "х": 120,
      "ц": 121,
      "ч": 122,
      "ш": 123,
      "щ": 124,
      "ы": 125,
      "ь": 126,
      "э": 127,
      "ю": 128,
      "я": 129,
      "є": 130,
      "і": 131,
      "א": 132,
      "ב": 133,
      "ד": 134,
      "ה": 135,
      "ו": 136,
      "י": 137,
      "ל": 138,
      "ם": 139,
      "מ": 140,
      "נ": 141,
      "ע": 142,
      "ר": 143,
      "ש": 144,
      "ת": 145,
      "،": 146,
      "؛": 147,
      "؟": 148,
      "ء": 149,
      "ا": 150,
      "ب": 151,
      "ة": 152,
      "ت": 153,
      "ث": 154,
      "ج": 155,
      "ح": 156,
      "خ": 157,
      "د": 158,
      "ذ": 159,
      "ر": 160,
      "ز": 161,
      "س": 162,
      "ش": 163,
      "ص": 164,
      "ض": 165,
      "ط": 166,
      "ظ": 167,
      "ع": 168,
      "غ": 169,
      "ـ": 170,
      "ف": 171,
      "ق": 172,
      "ك": 173,
      "ل": 174,
      "م": 175,
      "ن": 176,
      "ه": 177,
      "و": 178,
      "ى": 179,
      "ي": 180,
      "٠": 181,
      "١": 182,
      "٢": 183,
      "٣": 184,
      "٤": 185,
      "٥": 186,
      "٦": 187,
      "٧": 188,
      "٨": 189,
      "٩": 190,
      "٪": 191,
      "ٱ": 192,
      "ٲ": 193,
      "ٹ": 194,
      "ٺ": 195,
      "پ": 196,
      "چ": 197,
      "ڈ": 198,
      "ڑ": 199,
      "ژ": 200,
      "ڤ": 201,
      "ڨ": 202,
      "ک": 203,
      "ڪ": 204,
      "ګ": 205,
      "گ": 206,
      "ں": 207,
      "ھ": 208,
      "ہ": 209,
      "ۃ": 210,
      "ۆ": 211,
      "ۈ": 212,
      "ی": 213,
      "ێ": 214,
      "ې": 215,
      "ے": 216,
      "۔": 217,
      "ە": 218,
      "۞": 219,
      "ۥ": 220,
      "ۦ": 221,
      "۰": 222,
      "۱": 223,
      "۲": 224,
      "अ": 225,
      "आ": 226,
      "इ": 227,
      "ई": 228,
      "उ": 229,
      "ए": 230,
      "औ": 231,
      "क": 232,
      "ख": 233,
      "ग": 234,
      "च": 235,
      "छ": 236,
      "ज": 237,
      "ट": 238,
      "ड": 239,
      "ण": 240,
      "त": 241,
      "थ": 242,
      "द": 243,
      "ध": 244,
      "न": 245,
      "प": 246,
      "फ": 247,
      "ब": 248,
      "भ": 249,
      "म": 250,
      "य": 251,
      "र": 252,
      "ल": 253,
      "व": 254,
      "श": 255,
      "ष": 256,
      "स": 257,
      "ह": 258,
      "ा": 259,
      "ि": 260,
      "ी": 261,
      "ो": 262,
      "।": 263,
      "ক": 264,
      "ত": 265,
      "ন": 266,
      "ব": 267,
      "ম": 268,
      "য": 269,
      "র": 270,
      "া": 271,
      "ি": 272,
      "ে": 273,
      "ર": 274,
      "ા": 275,
      "କ": 276,
      "ତ": 277,
      "ନ": 278,
      "ବ": 279,
      "ମ": 280,
      "ର": 281,
      "ା": 282,
      "େ": 283,
      "ก": 284,
      "ค": 285,
      "ง": 286,
      "ด": 287,
      "ต": 288,
      "น": 289,
      "บ": 290,
      "ม": 291,
      "ย": 292,
      "ร": 293,
      "ล": 294,
      "ว": 295,
      "ห": 296,
      "อ": 297,
      "ะ": 298,
      "า": 299,
      "เ": 300,
      "แ": 301,
      "ไ": 302,
      "ღ": 303,
      "ᄀ": 304,
      "ᄁ": 305,
      "ᄂ": 306,
      "ᄃ": 307,
      "ᄅ": 308,
      "ᄆ": 309,
      "ᄇ": 310,
      "ᄈ": 311,
      "ᄉ": 312,
      "ᄋ": 313,
      "ᄌ": 314,
      "ᄎ": 315,
      "ᄏ": 316,
      "ᄐ": 317,
      "ᄑ": 318,
      "ᄒ": 319,
      "ᅡ": 320,
      "ᅢ": 321,
      "ᅣ": 322,
      "ᅥ": 323,
      "ᅦ": 324,
      "ᅧ": 325,
      "ᅩ": 326,
      "ᅪ": 327,
      "ᅬ": 328,
      "ᅭ": 329,
      "ᅮ": 330,
      "ᅲ": 331,
      "ᅳ": 332,
      "ᅴ": 333,
      "ᅵ": 334,
      "ᆨ": 335,
      "ᆫ": 336,
      "ᆮ": 337,
      "ᆯ": 338,
      "ᆷ": 339,
      "ᆸ": 340,
      "ᆺ": 341,
      "ᆻ": 342,
      "ᆼ": 343,
      "ᆾ": 344,
      "ᇀ": 345,
      "–": 346,
      "—": 347,
      "‘": 348,
      "’": 349,
      "“": 350,
      "”": 351,
      "•": 352,
      "…": 353,
      "‼": 354,
      "⁉": 355,
      "€": 356,
      "⃣": 357,
      "↖": 358,
      "↗": 359,
      "─": 360,
      "━": 361,
      "█": 362,
      "▒": 363,
      "▪": 364,
      "●": 365,
      "☀": 366,
      "☆": 367,
      "☕": 368,
      "☝": 369,
      "☠": 370,
      "☹": 371,
      "☺": 372,
      "☻": 373,
      "♀": 374,
      "♂": 375,
      "♡": 376,
      "♥": 377,
      "♦": 378,
      "♪": 379,
      "⚘": 380,
      "⚡": 381,
      "⚽": 382,
      "⛔": 383,
      "✂": 384,
      "✅": 385,
      "✈": 386,
      "✊": 387,
      "✋": 388,
      "✌": 389,
      "✍": 390,
      "✔": 391,
      "✨": 392,
      "❌": 393,
      "❗": 394,
      "❣": 395,
      "❤": 396,
      "⠀": 397,
      "⬅": 398,
      "⬇": 399,
      "⭐": 400,
      "⭕": 401,
      "ⴰ": 402,
      "、": 403,
      "。": 404,
      "々": 405,
      "》": 406,
      "「": 407,
      "」": 408,
      "『": 409,
      "』": 410,
      "【": 411,
      "】": 412,
      "〜": 413,
      "ぁ": 414,
      "あ": 415,
      "い": 416,
      "う": 417,
      "ぇ": 418,
      "え": 419,
      "お": 420,
      "か": 421,
      "き": 422,
      "く": 423,
      "け": 424,
      "こ": 425,
      "さ": 426,
      "し": 427,
      "す": 428,
      "せ": 429,
      "そ": 430,
      "た": 431,
      "ち": 432,
      "っ": 433,
      "つ": 434,
      "て": 435,
      "と": 436,
      "な": 437,
      "に": 438,
      "ね": 439,
      "の": 440,
      "は": 441,
      "ひ": 442,
      "ふ": 443,
      "へ": 444,
      "ほ": 445,
      "ま": 446,
      "み": 447,
      "む": 448,
      "め": 449,
      "も": 450,
      "ゃ": 451,
      "や": 452,
      "ゅ": 453,
      "ゆ": 454,
      "ょ": 455,
      "よ": 456,
      "ら": 457,
      "り": 458,
      "る": 459,
      "れ": 460,
      "ろ": 461,
      "わ": 462,
      "を": 463,
      "ん": 464,
      "ァ": 465,
      "ア": 466,
      "ィ": 467,
      "イ": 468,
      "ウ": 469,
      "ェ": 470,
      "エ": 471,
      "ォ": 472,
      "オ": 473,
      "カ": 474,
      "キ": 475,
      "ク": 476,
      "ケ": 477,
      "コ": 478,
      "サ": 479,
      "シ": 480,
      "ス": 481,
      "セ": 482,
      "ソ": 483,
      "タ": 484,
      "チ": 485,
      "ッ": 486,
      "ツ": 487,
      "テ": 488,
      "ト": 489,
      "ナ": 490,
      "ニ": 491,
      "ネ": 492,
      "ノ": 493,
      "ハ": 494,
      "ヒ": 495,
      "フ": 496,
      "ヘ": 497,
      "ホ": 498,
      "マ": 499,
      "ミ": 500,
      "ム": 501,
      "メ": 502,
      "モ": 503,
      "ャ": 504,
      "ヤ": 505,
      "ュ": 506,
      "ョ": 507,
      "ラ": 508,
      "リ": 509,
      "ル": 510,
      "レ": 511,
      "ロ": 512,
      "ワ": 513,
      "ン": 514,
      "・": 515,
      "ー": 516,
      "ヽ": 517,
      "ㅋ": 518,
      "ㅠ": 519,
      "ㅤ": 520,
      "一": 521,
      "上": 522,
      "下": 523,
      "中": 524,
      "事": 525,
      "人": 526,
      "今": 527,
      "休": 528,
      "会": 529,
      "体": 530,
      "何": 531,
      "作": 532,
      "使": 533,
      "信": 534,
      "先": 535,
      "入": 536,
      "全": 537,
      "円": 538,
      "写": 539,
      "出": 540,
      "分": 541,
      "初": 542,
      "前": 543,
      "力": 544,
      "加": 545,
      "動": 546,
      "勝": 547,
      "募": 548,
      "参": 549,
      "取": 550,
      "可": 551,
      "合": 552,
      "同": 553,
      "名": 554,
      "味": 555,
      "品": 556,
      "問": 557,
      "回": 558,
      "場": 559,
      "変": 560,
      "多": 561,
      "大": 562,
      "天": 563,
      "女": 564,
      "好": 565,
      "嬉": 566,
      "子": 567,
      "定": 568,
      "実": 569,
      "家": 570,
      "対": 571,
      "小": 572,
      "少": 573,
      "年": 574,
      "店": 575,
      "度": 576,
      "張": 577,
      "強": 578,
      "当": 579,
      "待": 580,
      "後": 581,
      "心": 582,
      "応": 583,
      "思": 584,
      "意": 585,
      "愛": 586,
      "感": 587,
      "戦": 588,
      "手": 589,
      "持": 590,
      "新": 591,
      "方": 592,
      "日": 593,
      "明": 594,
      "時": 595,
      "更": 596,
      "最": 597,
      "月": 598,
      "本": 599,
      "来": 600,
      "業": 601,
      "楽": 602,
      "様": 603,
      "欲": 604,
      "気": 605,
      "無": 606,
      "物": 607,
      "理": 608,
      "生": 609,
      "田": 610,
      "画": 611,
      "番": 612,
      "発": 613,
      "的": 614,
      "目": 615,
      "真": 616,
      "知": 617,
      "私": 618,
      "笑": 619,
      "素": 620,
      "結": 621,
      "美": 622,
      "者": 623,
      "自": 624,
      "良": 625,
      "色": 626,
      "行": 627,
      "見": 628,
      "言": 629,
      "話": 630,
      "買": 631,
      "質": 632,
      "近": 633,
      "通": 634,
      "違": 635,
      "部": 636,
      "野": 637,
      "金": 638,
      "開": 639,
      "間": 640,
      "関": 641,
      "集": 642,
      "面": 643,
      "頑": 644,
      "願": 645,
      "食": 646,
      "高": 647,
      "ꭵ": 648,
      "ꭿ": 649,
      "ﭑ": 650,
      "ﯾ": 651,
      "﴾": 652,
      "﴿": 653,
      "ﷺ": 654,
      "ﹻ": 655,
      "ﺀ": 656,
      "ﺁ": 657,
      "ﺂ": 658,
      "ﺃ": 659,
      "ﺄ": 660,
      "ﺇ": 661,
      "ﺋ": 662,
      "ﺍ": 663,
      "ﺎ": 664,
      "ﺏ": 665,
      "ﺐ": 666,
      "ﺑ": 667,
      "ﺒ": 668,
      "ﺓ": 669,
      "ﺔ": 670,
      "ﺕ": 671,
      "ﺖ": 672,
      "ﺗ": 673,
      "ﺘ": 674,
      "ﺜ": 675,
      "ﺟ": 676,
      "ﺠ": 677,
      "ﺣ": 678,
      "ﺤ": 679,
      "ﺧ": 680,
      "ﺨ": 681,
      "ﺩ": 682,
      "ﺪ": 683,
      "ﺫ": 684,
      "ﺬ": 685,
      "ﺭ": 686,
      "ﺮ": 687,
      "ﺯ": 688,
      "ﺰ": 689,
      "ﺱ": 690,
      "ﺲ": 691,
      "ﺳ": 692,
      "ﺴ": 693,
      "ﺵ": 694,
      "ﺷ": 695,
      "ﺸ": 696,
      "ﺻ": 697,
      "ﺼ": 698,
      "ﻀ": 699,
      "ﻃ": 700,
      "ﻄ": 701,
      "ﻊ": 702,
      "ﻋ": 703,
      "ﻌ": 704,
      "ﻏ": 705,
      "ﻐ": 706,
      "ﻑ": 707,
      "ﻒ": 708,
      "ﻓ": 709,
      "ﻔ": 710,
      "ﻖ": 711,
      "ﻗ": 712,
      "ﻘ": 713,
      "ﻙ": 714,
      "ﻚ": 715,
      "ﻛ": 716,
      "ﻜ": 717,
      "ﻝ": 718,
      "ﻞ": 719,
      "ﻟ": 720,
      "ﻠ": 721,
      "ﻡ": 722,
      "ﻢ": 723,
      "ﻣ": 724,
      "ﻤ": 725,
      "ﻥ": 726,
      "ﻦ": 727,
      "ﻧ": 728,
      "ﻨ": 729,
      "ﻩ": 730,
      "ﻪ": 731,
      "ﻫ": 732,
      "ﻬ": 733,
      "ﻭ": 734,
      "ﻮ": 735,
      "ﻰ": 736,
      "ﻱ": 737,
      "ﻲ": 738,
      "ﻳ": 739,
      "ﻴ": 740,
      "ﻷ": 741,
      "ﻹ": 742,
      "ﻻ": 743,
      "ﻼ": 744,
      "！": 745,
      "（": 746,
      "）": 747,
      "；": 748,
      "？": 749,
      "＿": 750,
      "｀": 751,
      "ｗ": 752,
      "｜": 753,
      "～": 754,
      "｡": 755,
      "･": 756,
      "ﾞ": 757,
      "ﾟ": 758,
      "￣": 759,
      "🇦": 760,
      "🇧": 761,
      "🇨": 762,
      "🇩": 763,
      "🇪": 764,
      "🇫": 765,
      "🇬": 766,
      "🇮": 767,
      "🇰": 768,
      "🇱": 769,
      "🇲": 770,
      "🇳": 771,
      "🇵": 772,
      "🇶": 773,
      "🇷": 774,
      "🇸": 775,
      "🇹": 776,
      "🇺": 777,
      "🇾": 778,
      "🇿": 779,
      "🌈": 780,
      "🌙": 781,
      "🌚": 782,
      "🌝": 783,
      "🌟": 784,
      "🌱": 785,
      "🌳": 786,
      "🌴": 787,
      "🌶": 788,
      "🌷": 789,
      "🌸": 790,
      "🌹": 791,
      "🌺": 792,
      "🌻": 793,
      "🌼": 794,
      "🌿": 795,
      "🍀": 796,
      "🍁": 797,
      "🍂": 798,
      "🍃": 799,
      "🍒": 800,
      "🍓": 801,
      "🍯": 802,
      "🎁": 803,
      "🎂": 804,
      "🎈": 805,
      "🎉": 806,
      "🎊": 807,
      "🎓": 808,
      "🎤": 809,
      "🎩": 810,
      "🎵": 811,
      "🎶": 812,
      "🎼": 813,
      "🏃": 814,
      "🏆": 815,
      "🏻": 816,
      "🏼": 817,
      "🏽": 818,
      "🏾": 819,
      "🏿": 820,
      "🐸": 821,
      "👀": 822,
      "👆": 823,
      "👇": 824,
      "👈": 825,
      "👉": 826,
      "👊": 827,
      "👋": 828,
      "👌": 829,
      "👍": 830,
      "👎": 831,
      "👏": 832,
      "👐": 833,
      "👑": 834,
      "👨": 835,
      "👩": 836,
      "👯": 837,
      "👻": 838,
      "💀": 839,
      "💁": 840,
      "💃": 841,
      "💅": 842,
      "💋": 843,
      "💌": 844,
      "💍": 845,
      "💎": 846,
      "💐": 847,
      "💓": 848,
      "💔": 849,
      "💕": 850,
      "💖": 851,
      "💗": 852,
      "💘": 853,
      "💙": 854,
      "💚": 855,
      "💛": 856,
      "💜": 857,
      "💝": 858,
      "💞": 859,
      "💟": 860,
      "💢": 861,
      "💣": 862,
      "💥": 863,
      "💦": 864,
      "💩": 865,
      "💪": 866,
      "💫": 867,
      "💭": 868,
      "💯": 869,
      "💰": 870,
      "💵": 871,
      "💸": 872,
      "📌": 873,
      "📍": 874,
      "📚": 875,
      "📱": 876,
      "📸": 877,
      "🔥": 878,
      "🔪": 879,
      "🔫": 880,
      "🔴": 881,
      "🔵": 882,
      "🔸": 883,
      "🔹": 884,
      "🕊": 885,
      "🕋": 886,
      "🕌": 887,
      "🖐": 888,
      "🖕": 889,
      "🖤": 890,
      "😀": 891,
      "😁": 892,
      "😂": 893,
      "😃": 894,
      "😄": 895,
      "😅": 896,
      "😆": 897,
      "😇": 898,
      "😈": 899,
      "😉": 900,
      "😊": 901,
      "😋": 902,
      "😌": 903,
      "😍": 904,
      "😎": 905,
      "😏": 906,
      "😐": 907,
      "😑": 908,
      "😒": 909,
      "😓": 910,
      "😔": 911,
      "😕": 912,
      "😖": 913,
      "😗": 914,
      "😘": 915,
      "😙": 916,
      "😚": 917,
      "😛": 918,
      "😜": 919,
      "😝": 920,
      "😞": 921,
      "😟": 922,
      "😠": 923,
      "😡": 924,
      "😢": 925,
      "😣": 926,
      "😤": 927,
      "😥": 928,
      "😧": 929,
      "😨": 930,
      "😩": 931,
      "😪": 932,
      "😫": 933,
      "😬": 934,
      "😭": 935,
      "😮": 936,
      "😯": 937,
      "😰": 938,
      "😱": 939,
      "😲": 940,
      "😳": 941,
      "😴": 942,
      "😵": 943,
      "😶": 944,
      "😷": 945,
      "😹": 946,
      "😻": 947,
      "😾": 948,
      "😿": 949,
      "🙁": 950,
      "🙂": 951,
      "🙃": 952,
      "🙄": 953,
      "🙆": 954,
      "🙇": 955,
      "🙈": 956,
      "🙉": 957,
      "🙊": 958,
      "🙋": 959,
      "🙌": 960,
      "🙏": 961,
      "🚀": 962,
      "🚨": 963,
      "🚬": 964,
      "🚶": 965,
      "🛑": 966,
      "🤍": 967,
      "🤐": 968,
      "🤓": 969,
      "🤔": 970,
      "🤕": 971,
      "🤗": 972,
      "🤙": 973,
      "🤚": 974,
      "🤝": 975,
      "🤞": 976,
      "🤡": 977,
      "🤢": 978,
      "🤣": 979,
      "🤤": 980,
      "🤥": 981,
      "🤦": 982,
      "🤧": 983,
      "🤨": 984,
      "🤩": 985,
      "🤪": 986,
      "🤫": 987,
      "🤬": 988,
      "🤭": 989,
      "🤮": 990,
      "🤯": 991,
      "🤲": 992,
      "🤷": 993,
      "🥀": 994,
      "🥰": 995,
      "🥲": 996,
      "🥳": 997,
      "🥴": 998,
      "🥵": 999,
      "🥶": 1000,
      "🥺": 1001,
      "🦅": 1002,
      "🦋": 1003,
      "🦦": 1004,
      "🧐": 1005,
      "🧡": 1006,
      "##ا": 1007,
      "##ل": 1008,
      "##ی": 1009,
      "##ہ": 1010,
      "##ر": 1011,
      "##غ": 1012,
      "##م": 1013,
      "##ش": 1014,
      "##ع": 1015,
      "##ي": 1016,
      "##ة": 1017,
      "##ت": 1018,
      "##ب": 1019,
      "##ك": 1020,
      "##f": 1021,
      "##a": 1022,
      "##q": 1023,
      "##i": 1024,
      "##d": 1025,
      "##ه": 1026,
      "##س": 1027,
      "##j": 1028,
      "##h": 1029,
      "##e": 1030,
      "##n": 1031,
      "##و": 1032,
      "##l": 1033,
      "##m": 1034,
      "##😂": 1035,
      "##o": 1036,
      "##u": 1037,
      "##z": 1038,
      "##k": 1039,
      "##w": 1040,
      "##c": 1041,
      "##t": 1042,
      "##s": 1043,
      "##r": 1044,
      "##p": 1045,
      "##v": 1046,
      "##ق": 1047,
      "##د": 1048,
      "##💕": 1049,
      "##ن": 1050,
      "##ض": 1051,
      "##b": 1052,
      "##9": 1053,
      "##0": 1054,
      "##ز": 1055,
      "##ط": 1056,
      "##ح": 1057,
      "##y": 1058,
      "##ذ": 1059,
      "##ص": 1060,
      "##g": 1061,
      "##ء": 1062,
      "##3": 1063,
      "##8": 1064,
      "##😜": 1065,
      "##🤓": 1066,
      "##😍": 1067,
      "##ث": 1068,
      "##ﻟ": 1069,
      "##ﺴ": 1070,
      "##ﺬ": 1071,
      "##ﺍ": 1072,
      "##ﺟ": 1073,
      "##ﺔ": 1074,
      "##ग": 1075,
      "##र": 1076,
      "##ﾞ": 1077,
      "##さ": 1078,
      "##せ": 1079,
      "##て": 1080,
      "##р": 1081,
      "##ف": 1082,
      "##ج": 1083,
      "##ち": 1084,
      "##ゃ": 1085,
      "##く": 1086,
      "##そ": 1087,
      "##イ": 1088,
      "##ケ": 1089,
      "##ホ": 1090,
      "##な": 1091,
      "##ん": 1092,
      "##た": 1093,
      "##よ": 1094,
      "##あ": 1095,
      "##も": 1096,
      "##う": 1097,
      "##ほ": 1098,
      "##と": 1099,
      "##ى": 1100,
      "##7": 1101,
      "##ﻫ": 1102,
      "##ـ": 1103,
      "##ﺮ": 1104,
      "##ﻱ": 1105,
      "##خ": 1106,
      "##🙄": 1107,
      "##お": 1108,
      "##✈": 1109,
      "##え": 1110,
      "##へ": 1111,
      "##は": 1112,
      "##す": 1113,
      "##や": 1114,
      "##か": 1115,
      "##ら": 1116,
      "##2": 1117,
      "##🐸": 1118,
      "##у": 1119,
      "##з": 1120,
      "##ь": 1121,
      "##я": 1122,
      "##м": 1123,
      "##и": 1124,
      "##ظ": 1125,
      "##प": 1126,
      "##ि": 1127,
      "##व": 1128,
      "##ा": 1129,
      "##😾": 1130,
      "##😑": 1131,
      "##😕": 1132,
      "##😶": 1133,
      "##👆": 1134,
      "##ह": 1135,
      "##म": 1136,
      "##💰": 1137,
      "##🤦": 1138,
      "##x": 1139,
      "##ে": 1140,
      "##া": 1141,
      "##ক": 1142,
      "##ব": 1143,
      "##い": 1144,
      "##る": 1145,
      "##😯": 1146,
      "##ত": 1147,
      "##ম": 1148,
      "##ন": 1149,
      "##ﺨ": 1150,
      "##ﻄ": 1151,
      "##ﻮ": 1152,
      "##ﺕ": 1153,
      "##ڨ": 1154,
      "##💚": 1155,
      "##ø": 1156,
      "##ᅵ": 1157,
      "##ᆻ": 1158,
      "##ᄂ": 1159,
      "##ᅳ": 1160,
      "##ᆫ": 1161,
      "##ᄀ": 1162,
      "##ᅥ": 1163,
      "##ᅦ": 1164,
      "##ᄌ": 1165,
      "##ᄋ": 1166,
      "##ᅭ": 1167,
      "##ᅡ": 1168,
      "##ᄅ": 1169,
      "##😭": 1170,
      "##🙏": 1171,
      "##ڪ": 1172,
      "##য": 1173,
      "##ね": 1174,
      "##٣": 1175,
      "##٦": 1176,
      "##❤": 1177,
      "##🤭": 1178,
      "##ᄃ": 1179,
      "##а": 1180,
      "##н": 1181,
      "##і": 1182,
      "##с": 1183,
      "##т": 1184,
      "##1": 1185,
      "##о": 1186,
      "##っ": 1187,
      "##گ": 1188,
      "##6": 1189,
      "##🇩": 1190,
      "##🇿": 1191,
      "##💪": 1192,
      "##🔥": 1193,
      "##✔": 1194,
      "##ﺠ": 1195,
      "##ﺎ": 1196,
      "##の": 1197,
      "##タ": 1198,
      "##ク": 1199,
      "##つ": 1200,
      "##し": 1201,
      "##ł": 1202,
      "##♂": 1203,
      "##🤗": 1204,
      "##😬": 1205,
      "##💝": 1206,
      "##ш": 1207,
      "##е": 1208,
      "##メ": 1209,
      "##ン": 1210,
      "##エ": 1211,
      "##チ": 1212,
      "##ノ": 1213,
      "##چ": 1214,
      "##ß": 1215,
      "##5": 1216,
      "##😌": 1217,
      "##😅": 1218,
      "##х": 1219,
      "##サ": 1220,
      "##フ": 1221,
      "##4": 1222,
      "##😏": 1223,
      "##æ": 1224,
      "##ま": 1225,
      "##け": 1226,
      "##ڈ": 1227,
      "##🏻": 1228,
      "##✅": 1229,
      "##😐": 1230,
      "##ャ": 1231,
      "##ス": 1232,
      "##テ": 1233,
      "##ー": 1234,
      "##シ": 1235,
      "##न": 1236,
      "##क": 1237,
      "##ो": 1238,
      "##🎉": 1239,
      "##😻": 1240,
      "##đ": 1241,
      "##پ": 1242,
      "##💔": 1243,
      "##🌝": 1244,
      "##🙈": 1245,
      "##🤯": 1246,
      "##😡": 1247,
      "##य": 1248,
      "##ट": 1249,
      "##ﻴ": 1250,
      "##😉": 1251,
      "##😔": 1252,
      "##🏽": 1253,
      "##ı": 1254,
      "##😁": 1255,
      "##✨": 1256,
      "##に": 1257,
      "##き": 1258,
      "##🏃": 1259,
      "##ト": 1260,
      "##ヒ": 1261,
      "##ア": 1262,
      "##れ": 1263,
      "##❣": 1264,
      "##🙂": 1265,
      "##👀": 1266,
      "##ル": 1267,
      "##わ": 1268,
      "##ٱ": 1269,
      "##😱": 1270,
      "##💙": 1271,
      "##ڤ": 1272,
      "##ﻤ": 1273,
      "##ﻣ": 1274,
      "##ﺘ": 1275,
      "##ﻬ": 1276,
      "##ﻢ": 1277,
      "##👇": 1278,
      "##י": 1279,
      "##נ": 1280,
      "##ת": 1281,
      "##ろ": 1282,
      "##🥺": 1283,
      "##त": 1284,
      "##œ": 1285,
      "##😠": 1286,
      "##´": 1287,
      "##💖": 1288,
      "##🖤": 1289,
      "##♥": 1290,
      "##😫": 1291,
      "##ﻓ": 1292,
      "##😇": 1293,
      "##🙊": 1294,
      "##ں": 1295,
      "##🇺": 1296,
      "##🇸": 1297,
      "##🇦": 1298,
      "##😢": 1299,
      "##ы": 1300,
      "##л": 1301,
      "##п": 1302,
      "##ھ": 1303,
      "##ﺑ": 1304,
      "##ﻌ": 1305,
      "##ﺰ": 1306,
      "##ﻳ": 1307,
      "##١": 1308,
      "##٠": 1309,
      "##ी": 1310,
      "##😄": 1311,
      "##🇳": 1312,
      "##🌸": 1313,
      "##🤲": 1314,
      "##💓": 1315,
      "##🖕": 1316,
      "##🤣": 1317,
      "##👊": 1318,
      "##ﻔ": 1319,
      "##👎": 1320,
      "##🧡": 1321,
      "##ﺣ": 1322,
      "##ﺪ": 1323,
      "##ﻧ": 1324,
      "##ﻲ": 1325,
      "##ﺸ": 1326,
      "##💛": 1327,
      "##ﻻ": 1328,
      "##ﺭ": 1329,
      "##👑": 1330,
      "##😹": 1331,
      "##🍯": 1332,
      "##😤": 1333,
      "##😓": 1334,
      "##💣": 1335,
      "##🤷": 1336,
      "##🤍": 1337,
      "##🤔": 1338,
      "##ŋ": 1339,
      "##²": 1340,
      "##ぁ": 1341,
      "##⚘": 1342,
      "##✋": 1343,
      "##ﺳ": 1344,
      "##ﻡ": 1345,
      "##😲": 1346,
      "##є": 1347,
      "##к": 1348,
      "##ч": 1349,
      "##स": 1350,
      "##😎": 1351,
      "##🌚": 1352,
      "##♀": 1353,
      "##😋": 1354,
      "##め": 1355,
      "##ッ": 1356,
      "##リ": 1357,
      "##👌": 1358,
      "##👍": 1359,
      "##📸": 1360,
      "##ٹ": 1361,
      "##ک": 1362,
      "##💋": 1363,
      "##💘": 1364,
      "##💞": 1365,
      "##🤮": 1366,
      "##ニ": 1367,
      "##ハ": 1368,
      "##€": 1369,
      "##ᅢ": 1370,
      "##ᅧ": 1371,
      "##ᄒ": 1372,
      "##👏": 1373,
      "##ゅ": 1374,
      "##ソ": 1375,
      "##ロ": 1376,
      "##ᆼ": 1377,
      "##ᅮ": 1378,
      "##🚶": 1379,
      "##ц": 1380,
      "##🥲": 1381,
      "##💜": 1382,
      "##🇰": 1383,
      "##💍": 1384,
      "##ନ": 1385,
      "##ତ": 1386,
      "##🇵": 1387,
      "##ю": 1388,
      "##🇹": 1389,
      "##☺": 1390,
      "##ے": 1391,
      "##💃": 1392,
      "##ﻜ": 1393,
      "##ﺤ": 1394,
      "##ﻝ": 1395,
      "##ज": 1396,
      "##в": 1397,
      "##ﻥ": 1398,
      "##ﻭ": 1399,
      "##ﺩ": 1400,
      "##ﭑ": 1401,
      "##ﻏ": 1402,
      "##ะ": 1403,
      "##🦦": 1404,
      "##😣": 1405,
      "##д": 1406,
      "##オ": 1407,
      "##द": 1408,
      "##ष": 1409,
      "##😃": 1410,
      "##ล": 1411,
      "##ว": 1412,
      "##อ": 1413,
      "##ﻛ": 1414,
      "##ﻞ": 1415,
      "##み": 1416,
      "##こ": 1417,
      "##ワ": 1418,
      "##🏿": 1419,
      "##ध": 1420,
      "##☹": 1421,
      "##～": 1422,
      "##б": 1423,
      "##を": 1424,
      "##キ": 1425,
      "##ラ": 1426,
      "##り": 1427,
      "##ェ": 1428,
      "##ᅩ": 1429,
      "##ᄁ": 1430,
      "##コ": 1431,
      "##ﺒ": 1432,
      "##ﻗ": 1433,
      "##ﺼ": 1434,
      "##😗": 1435,
      "##ᆸ": 1436,
      "##😪": 1437,
      "##🥰": 1438,
      "##ण": 1439,
      "##モ": 1440,
      "##ﻩ": 1441,
      "##ﻨ": 1442,
      "##ﻘ": 1443,
      "##😥": 1444,
      "##ﺓ": 1445,
      "##🇬": 1446,
      "##🖐": 1447,
      "##٨": 1448,
      "##ल": 1449,
      "##٧": 1450,
      "##👯": 1451,
      "##ナ": 1452,
      "##カ": 1453,
      "##ネ": 1454,
      "##ﻐ": 1455,
      "##ﺖ": 1456,
      "##😆": 1457,
      "##ﻰ": 1458,
      "##ᆯ": 1459,
      "##ᄉ": 1460,
      "##ﹻ": 1461,
      "##✌": 1462,
      "##ゆ": 1463,
      "##😊": 1464,
      "##ﻙ": 1465,
      "##😒": 1466,
      "##ख": 1467,
      "##ﻷ": 1468,
      "##ە": 1469,
      "##👩": 1470,
      "##ひ": 1471,
      "##💁": 1472,
      "##ε": 1473,
      "##ο": 1474,
      "##α": 1475,
      "##🔴": 1476,
      "##🌟": 1477,
      "##ﻦ": 1478,
      "##🌼": 1479,
      "##😳": 1480,
      "##✊": 1481,
      "##थ": 1482,
      "##💯": 1483,
      "##ﻒ": 1484,
      "##ۆ": 1485,
      "##🧐": 1486,
      "##😀": 1487,
      "##ɞ": 1488,
      "##😩": 1489,
      "##ۥ": 1490,
      "##レ": 1491,
      "##ﺫ": 1492,
      "##ﻖ": 1493,
      "##👨": 1494,
      "##ᇀ": 1495,
      "##ᄇ": 1496,
      "##ા": 1497,
      "##🙃": 1498,
      "##🇾": 1499,
      "##ᆨ": 1500,
      "##😴": 1501,
      "##ﺐ": 1502,
      "##🌹": 1503,
      "##🥴": 1504,
      "##ﺜ": 1505,
      "##😷": 1506,
      "##｀": 1507,
      "##✂": 1508,
      "##マ": 1509,
      "##☝": 1510,
      "##🥀": 1511,
      "##🤩": 1512,
      "##ﺯ": 1513,
      "##ﻚ": 1514,
      "##א": 1515,
      "##ר": 1516,
      "##ו": 1517,
      "##ﷺ": 1518,
      "##щ": 1519,
      "##🌷": 1520,
      "##େ": 1521,
      "##ା": 1522,
      "##🤐": 1523,
      "##🏆": 1524,
      "##🙌": 1525,
      "##🍒": 1526,
      "##भ": 1527,
      "##ए": 1528,
      "##😘": 1529,
      "##♡": 1530,
      "##🇷": 1531,
      "##ﻠ": 1532,
      "##🌙": 1533,
      "##🕌": 1534,
      "##💟": 1535,
      "##ウ": 1536,
      "##ィ": 1537,
      "##ヘ": 1538,
      "##👉": 1539,
      "##🎤": 1540,
      "##🙋": 1541,
      "##🤨": 1542,
      "##🍂": 1543,
      "##🏾": 1544,
      "##🙁": 1545,
      "##🙆": 1546,
      "##🙇": 1547,
      "##г": 1548,
      "##😞": 1549,
      "##ﻃ": 1550,
      "##ﻊ": 1551,
      "##💗": 1552,
      "##٤": 1553,
      "##😰": 1554,
      "##🤪": 1555,
      "##ﺷ": 1556,
      "##🎶": 1557,
      "##☠": 1558,
      "##э": 1559,
      "##ф": 1560,
      "##ﺏ": 1561,
      "##セ": 1562,
      "##ל": 1563,
      "##🤥": 1564,
      "##🔪": 1565,
      "##💀": 1566,
      "##💎": 1567,
      "##ι": 1568,
      "##👈": 1569,
      "##❌": 1570,
      "##ᅲ": 1571,
      "##ᆺ": 1572,
      "##ې": 1573,
      "##ต": 1574,
      "##เ": 1575,
      "##น": 1576,
      "##ﺗ": 1577,
      "##ﻪ": 1578,
      "##ﺻ": 1579,
      "##🕊": 1580,
      "##⃣": 1581,
      "##ᅪ": 1582,
      "##ร": 1583,
      "##า": 1584,
      "##ม": 1585,
      "##ง": 1586,
      "##ไ": 1587,
      "##ห": 1588,
      "##ょ": 1589,
      "##ﺧ": 1590,
      "##ה": 1591,
      "##ש": 1592,
      "##ۃ": 1593,
      "##ァ": 1594,
      "##ミ": 1595,
      "##🏼": 1596,
      "##🤙": 1597,
      "##👻": 1598,
      "##ョ": 1599,
      "##⚽": 1600,
      "##🎊": 1601,
      "##ꭵ": 1602,
      "##😚": 1603,
      "##🤡": 1604,
      "##ə": 1605,
      "##💥": 1606,
      "##ᅣ": 1607,
      "##ツ": 1608,
      "##°": 1609,
      "##🤫": 1610,
      "##😈": 1611,
      "##🤝": 1612,
      "##🚀": 1613,
      "##ژ": 1614,
      "##ێ": 1615,
      "##ﻀ": 1616,
      "##ﯾ": 1617,
      "##ꭿ": 1618,
      "##😵": 1619,
      "##श": 1620,
      "##☻": 1621,
      "##ᆾ": 1622,
      "##٩": 1623,
      "##ٺ": 1624,
      "##█": 1625,
      "##▒": 1626,
      "##💐": 1627,
      "##🤤": 1628,
      "##ﻋ": 1629,
      "##🎩": 1630,
      "##🥵": 1631,
      "##🤕": 1632,
      "##🎵": 1633,
      "##٢": 1634,
      "##ð": 1635,
      "##🌺": 1636,
      "##ย": 1637,
      "##บ": 1638,
      "##ก": 1639,
      "##ค": 1640,
      "##⭐": 1641,
      "##ﺂ": 1642,
      "##🇧": 1643,
      "##🍃": 1644,
      "##🍀": 1645,
      "##🇪": 1646,
      "##ж": 1647,
      "##🥳": 1648,
      "##☀": 1649,
      "##ʚ": 1650,
      "##ﺀ": 1651,
      "##🌱": 1652,
      "##💭": 1653,
      "##ぇ": 1654,
      "##❗": 1655,
      "##💫": 1656,
      "##ⴰ": 1657,
      "##٥": 1658,
      "##ᅴ": 1659,
      "##☕": 1660,
      "##ד": 1661,
      "##इ": 1662,
      "##🦅": 1663,
      "##🍁": 1664,
      "##ର": 1665,
      "##ګ": 1666,
      "##👋": 1667,
      "##ﻼ": 1668,
      "##ᄆ": 1669,
      "##🇮": 1670,
      "##ᅬ": 1671,
      "##🎁": 1672,
      "##ﾟ": 1673,
      "##💌": 1674,
      "##ם": 1675,
      "##ବ": 1676,
      "##ュ": 1677,
      "##ड": 1678,
      "##💦": 1679,
      "##♪": 1680,
      "##🌿": 1681,
      "##🕋": 1682,
      "##⬇": 1683,
      "##ମ": 1684,
      "##ム": 1685,
      "##फ": 1686,
      "##🇫": 1687,
      "##ב": 1688,
      "##מ": 1689,
      "##ヤ": 1690,
      "##ᆷ": 1691,
      "##💵": 1692,
      "##ब": 1693,
      "##🤬": 1694,
      "##ڑ": 1695,
      "##ᄐ": 1696,
      "##🇱": 1697,
      "##ォ": 1698,
      "##×": 1699,
      "##🇲": 1700,
      "##🦋": 1701,
      "##ด": 1702,
      "##😨": 1703,
      "##ۦ": 1704,
      "##🤧": 1705,
      "##ﺃ": 1706,
      "##😛": 1707,
      "##ω": 1708,
      "##🌶": 1709,
      "##র": 1710,
      "##च": 1711,
      "##ע": 1712,
      "##む": 1713,
      "##ᄎ": 1714,
      "##ふ": 1715,
      "##🍓": 1716,
      "##🤢": 1717,
      "##😮": 1718,
      "##🇶": 1719,
      "##💩": 1720,
      "##🤞": 1721,
      "##✍": 1722,
      "##☆": 1723,
      "##କ": 1724,
      "##😿": 1725,
      "##↗": 1726,
      "##🤚": 1727,
      "##🔸": 1728,
      "##😟": 1729,
      "##🌴": 1730,
      "##🙉": 1731,
      "##😖": 1732,
      "##😝": 1733,
      "##📱": 1734,
      "##♦": 1735,
      "##ﺱ": 1736,
      "##━": 1737,
      "##🇨": 1738,
      "##🔵": 1739,
      "##ﺄ": 1740,
      "##🔫": 1741,
      "##ﺇ": 1742,
      "##ᄏ": 1743,
      "##🛑": 1744,
      "##🌈": 1745,
      "##🎓": 1746,
      "##ღ": 1747,
      "##🎈": 1748,
      "##🚬": 1749,
      "##۰": 1750,
      "##🎂": 1751,
      "##ᄑ": 1752,
      "##🌳": 1753,
      "##ﺲ": 1754,
      "##ヽ": 1755,
      "##ﺁ": 1756,
      "##ি": 1757,
      "##💅": 1758,
      "##ﺵ": 1759,
      "##💸": 1760,
      "##🎼": 1761,
      "##ㅋ": 1762,
      "##ㅠ": 1763,
      "##⛔": 1764,
      "##ﻹ": 1765,
      "##แ": 1766,
      "##👐": 1767,
      "##ई": 1768,
      "##ᄈ": 1769,
      "##↖": 1770,
      "##ﺋ": 1771,
      "##🥶": 1772,
      "##😧": 1773,
      "##⚡": 1774,
      "##📌": 1775,
      "##⬅": 1776,
      "##ર": 1777,
      "##📍": 1778,
      "##۱": 1779,
      "##｜": 1780,
      "##🌻": 1781,
      "##۞": 1782,
      "##📚": 1783,
      "##▪": 1784,
      "##⭕": 1785,
      "##ｗ": 1786,
      "##●": 1787,
      "##ﻑ": 1788,
      "##─": 1789,
      "##अ": 1790,
      "##😙": 1791,
      "##उ": 1792,
      "##⠀": 1793,
      "##छ": 1794,
      "##ٲ": 1795,
      "##🔹": 1796,
      "##ۈ": 1797,
      "##🚨": 1798,
      "##ㅤ": 1799,
      "##💢": 1800,
      "##۲": 1801,
      "##ᆮ": 1802,
      "##आ": 1803,
      "##￣": 1804,
      "##औ": 1805,
      "ال": 1806,
      "##er": 1807,
      "##ال": 1808,
      "##ser": 1809,
      "user": 1810,
      "##ان": 1811,
      "##نا": 1812,
      "##لي": 1813,
      "##ها": 1814,
      "##لا": 1815,
      "##ين": 1816,
      "##ou": 1817,
      "##ير": 1818,
      "##له": 1819,
      "##ار": 1820,
      "في": 1821,
      "##هه": 1822,
      "##ات": 1823,
      "##in": 1824,
      "من": 1825,
      "##an": 1826,
      "##on": 1827,
      "ان": 1828,
      "##هم": 1829,
      "##بي": 1830,
      "##ون": 1831,
      "##ام": 1832,
      "الم": 1833,
      "##اي": 1834,
      "##ha": 1835,
      "##en": 1836,
      "##ري": 1837,
      "##es": 1838,
      "##ول": 1839,
      "##ed": 1840,
      "##وا": 1841,
      "##دي": 1842,
      "##را": 1843,
      "##la": 1844,
      "الله": 1845,
      "ما": 1846,
      "##om": 1847,
      "##ما": 1848,
      "##ar": 1849,
      "##اب": 1850,
      "##ية": 1851,
      "وال": 1852,
      "الا": 1853,
      "an": 1854,
      "##ور": 1855,
      "##ست": 1856,
      "##al": 1857,
      "##كم": 1858,
      "##mi": 1859,
      "##لى": 1860,
      "##يا": 1861,
      "##اع": 1862,
      "الع": 1863,
      "##is": 1864,
      "##ch": 1865,
      "لا": 1866,
      "##tt": 1867,
      "وا": 1868,
      "لي": 1869,
      "مع": 1870,
      "com": 1871,
      "ma": 1872,
      "##وم": 1873,
      "على": 1874,
      "##هههه": 1875,
      "الح": 1876,
      "##لم": 1877,
      "##تي": 1878,
      "عن": 1879,
      "##lin": 1880,
      "##re": 1881,
      "##ra": 1882,
      "##el": 1883,
      "بال": 1884,
      "##ني": 1885,
      "##في": 1886,
      "علي": 1887,
      "##ps": 1888,
      "##as": 1889,
      "##ذا": 1890,
      "##it": 1891,
      "را": 1892,
      "##لو": 1893,
      "##ttps": 1894,
      "الج": 1895,
      "##ad": 1896,
      "##zed": 1897,
      "##ony": 1898,
      "https": 1899,
      "##رو": 1900,
      "anony": 1901,
      "##link": 1902,
      "##mized": 1903,
      "anonymized": 1904,
      "anonymizedlink": 1905,
      "يا": 1906,
      "##اء": 1907,
      "##😂😂": 1908,
      "##حد": 1909,
      "##am": 1910,
      "##ah": 1911,
      "##le": 1912,
      "##اد": 1913,
      "##at": 1914,
      "##hh": 1915,
      "de": 1916,
      "##يت": 1917,
      "##يد": 1918,
      "##حم": 1919,
      "ولا": 1920,
      "##00": 1921,
      "الس": 1922,
      "##اش": 1923,
      "كي": 1924,
      "##li": 1925,
      "الش": 1926,
      "##em": 1927,
      "كل": 1928,
      "##رب": 1929,
      "##or": 1930,
      "##لك": 1931,
      "##عد": 1932,
      "الت": 1933,
      "##رف": 1934,
      "##رج": 1935,
      "##رة": 1936,
      "##ak": 1937,
      "##زا": 1938,
      "##رك": 1939,
      "##سي": 1940,
      "الب": 1941,
      "ام": 1942,
      "##عب": 1943,
      "la": 1944,
      "##حب": 1945,
      "##قد": 1946,
      "##تو": 1947,
      "##اك": 1948,
      "##ay": 1949,
      "##اه": 1950,
      "##يه": 1951,
      "##ti": 1952,
      "##نت": 1953,
      "انا": 1954,
      "##لة": 1955,
      "##ir": 1956,
      "تع": 1957,
      "الد": 1958,
      "##حت": 1959,
      "##اج": 1960,
      "##اس": 1961,
      "##st": 1962,
      "الق": 1963,
      "ربي": 1964,
      "كان": 1965,
      "##مي": 1966,
      "او": 1967,
      "##he": 1968,
      "الف": 1969,
      "الك": 1970,
      "##بر": 1971,
      "qu": 1972,
      "##اا": 1973,
      "##يب": 1974,
      "##ab": 1975,
      "لل": 1976,
      "##et": 1977,
      "##قي": 1978,
      "##ود": 1979,
      "يع": 1980,
      "##قول": 1981,
      "الخ": 1982,
      "الص": 1983,
      "اخ": 1984,
      "le": 1985,
      "##كي": 1986,
      "##لب": 1987,
      "عند": 1988,
      "##وي": 1989,
      "انت": 1990,
      "##id": 1991,
      "##im": 1992,
      "##من": 1993,
      "##دا": 1994,
      "##لق": 1995,
      "##شي": 1996,
      "##تك": 1997,
      "##وف": 1998,
      "##ent": 1999,
      "##اني": 2000,
      "وي": 2001,
      "##مة": 2002,
      "al": 2003,
      "##ek": 2004,
      "##il": 2005,
      "##سب": 2006,
      "##زاير": 2007,
      "##كر": 2008,
      "##سم": 2009,
      "##ur": 2010,
      "مت": 2011,
      "##كن": 2012,
      "الو": 2013,
      "##اف": 2014,
      "##our": 2015,
      "##lah": 2016,
      "وت": 2017,
      "et": 2018,
      "##قة": 2019,
      "sa": 2020,
      "ch": 2021,
      "##كون": 2022,
      "##طي": 2023,
      "##لام": 2024,
      "الن": 2025,
      "en": 2026,
      "##عة": 2027,
      "##وج": 2028,
      "هو": 2029,
      "##حي": 2030,
      "##بل": 2031,
      "##قت": 2032,
      "##na": 2033,
      "هذا": 2034,
      "الي": 2035,
      "غير": 2036,
      "تاع": 2037,
      "##حة": 2038,
      "مش": 2039,
      "اي": 2040,
      "##وك": 2041,
      "اع": 2042,
      "##ne": 2043,
      "##وت": 2044,
      "بي": 2045,
      "##دة": 2046,
      "وان": 2047,
      "##كل": 2048,
      "##الي": 2049,
      "to": 2050,
      "in": 2051,
      "##ma": 2052,
      "##ia": 2053,
      "##ro": 2054,
      "##لت": 2055,
      "اب": 2056,
      "##ik": 2057,
      "##ss": 2058,
      "##ربي": 2059,
      "شي": 2060,
      "##دم": 2061,
      "##عم": 2062,
      "##وو": 2063,
      "##te": 2064,
      "##فس": 2065,
      "##ol": 2066,
      "اللي": 2067,
      "##ya": 2068,
      "تح": 2069,
      "وم": 2070,
      "##هههههههه": 2071,
      "##فر": 2072,
      "يت": 2073,
      "رو": 2074,
      "حت": 2075,
      "ou": 2076,
      "واحد": 2077,
      "##ie": 2078,
      "##رحم": 2079,
      "فال": 2080,
      "##ذي": 2081,
      "##اح": 2082,
      "##نة": 2083,
      "علا": 2084,
      "الجزاير": 2085,
      "قال": 2086,
      "مس": 2087,
      "اك": 2088,
      "##خل": 2089,
      "##ve": 2090,
      "##ib": 2091,
      "##بع": 2092,
      "##a3": 2093,
      "##رت": 2094,
      "##جي": 2095,
      "##ولي": 2096,
      "##di": 2097,
      "##هد": 2098,
      "##ing": 2099,
      "نت": 2100,
      "يح": 2101,
      "##اط": 2102,
      "##فت": 2103,
      "el": 2104,
      "ون": 2105,
      "est": 2106,
      "##ce": 2107,
      "mo": 2108,
      "##هو": 2109,
      "##ine": 2110,
      "حتى": 2111,
      "##عي": 2112,
      "اح": 2113,
      "re": 2114,
      "##hhhh": 2115,
      "##بار": 2116,
      "##وس": 2117,
      "##وق": 2118,
      "اس": 2119,
      "لم": 2120,
      "les": 2121,
      "##us": 2122,
      "##الم": 2123,
      "##هي": 2124,
      "بس": 2125,
      "me": 2126,
      "عم": 2127,
      "##جع": 2128,
      "ha": 2129,
      "مي": 2130,
      "##او": 2131,
      "##نو": 2132,
      "the": 2133,
      "بعد": 2134,
      "والله": 2135,
      "صح": 2136,
      "وش": 2137,
      "##رق": 2138,
      "##حك": 2139,
      "است": 2140,
      "pas": 2141,
      "الز": 2142,
      "##hi": 2143,
      "##دو": 2144,
      "##ut": 2145,
      "fa": 2146,
      "##يي": 2147,
      "الط": 2148,
      "##ناس": 2149,
      "ya": 2150,
      "##صح": 2151,
      "بلا": 2152,
      "##كان": 2153,
      "##ho": 2154,
      "الى": 2155,
      "##بة": 2156,
      "##ــ": 2157,
      "##ri": 2158,
      "be": 2159,
      "يخ": 2160,
      "un": 2161,
      "هي": 2162,
      "##صل": 2163,
      "##عو": 2164,
      "##ta": 2165,
      "تت": 2166,
      "ها": 2167,
      "##oo": 2168,
      "##000": 2169,
      "تق": 2170,
      "ne": 2171,
      "##لهم": 2172,
      "تب": 2173,
      "##اص": 2174,
      "li": 2175,
      "وج": 2176,
      "##🤣🤣": 2177,
      "##aa": 2178,
      "😂😂😂": 2179,
      "واش": 2180,
      "الان": 2181,
      "لو": 2182,
      "##دير": 2183,
      "##اري": 2184,
      "##ous": 2185,
      "وب": 2186,
      "##ته": 2187,
      "##da": 2188,
      "اللهم": 2189,
      "يش": 2190,
      "je": 2191,
      "il": 2192,
      "##وع": 2193,
      "##رد": 2194,
      "دي": 2195,
      "##جل": 2196,
      "##un": 2197,
      "se": 2198,
      "الام": 2199,
      "عليه": 2200,
      "مات": 2201,
      "##qu": 2202,
      "##رض": 2203,
      "que": 2204,
      "يس": 2205,
      "##رش": 2206,
      "بع": 2207,
      "لان": 2208,
      "تخ": 2209,
      "##زي": 2210,
      "##مع": 2211,
      "شو": 2212,
      "##os": 2213,
      "##انا": 2214,
      "on": 2215,
      "ات": 2216,
      "با": 2217,
      "شاء": 2218,
      "##wa": 2219,
      "##هر": 2220,
      "##يرة": 2221,
      "قد": 2222,
      "am": 2223,
      "بن": 2224,
      "##قط": 2225,
      "تش": 2226,
      "##ii": 2227,
      "##3000": 2228,
      "u3000": 2229,
      "##يني": 2230,
      "##ارب": 2231,
      "##تها": 2232,
      "##😭😭": 2233,
      "##لها": 2234,
      "يوم": 2235,
      "##وش": 2236,
      "فيه": 2237,
      "اش": 2238,
      "اذا": 2239,
      "##out": 2240,
      "بد": 2241,
      "##and": 2242,
      "وع": 2243,
      "##غل": 2244,
      "##ni": 2245,
      "كيف": 2246,
      "##ot": 2247,
      "##ثر": 2248,
      "cha": 2249,
      "اص": 2250,
      "##خص": 2251,
      "##ولة": 2252,
      "##مض": 2253,
      "wa": 2254,
      "كنت": 2255,
      "فيها": 2256,
      "الناس": 2257,
      "##طو": 2258,
      "##الك": 2259,
      "u2": 2260,
      "##ضي": 2261,
      "##ang": 2262,
      "had": 2263,
      "##ند": 2264,
      "يرحم": 2265,
      "مو": 2266,
      "##بح": 2267,
      "##نس": 2268,
      "خير": 2269,
      "تم": 2270,
      "اه": 2271,
      "##جب": 2272,
      "##حمد": 2273,
      "th": 2274,
      "ab": 2275,
      "kh": 2276,
      "par": 2277,
      "##رية": 2278,
      "##قل": 2279,
      "مد": 2280,
      "des": 2281,
      "##سك": 2282,
      "نفس": 2283,
      "##aw": 2284,
      "##ion": 2285,
      "##مضان": 2286,
      "##امل": 2287,
      "##ant": 2288,
      "اف": 2289,
      "##ذه": 2290,
      "##وني": 2291,
      "لله": 2292,
      "di": 2293,
      "##زم": 2294,
      "فر": 2295,
      "##وه": 2296,
      "au": 2297,
      "بل": 2298,
      "##ارة": 2299,
      "##ره": 2300,
      "##cha": 2301,
      "بت": 2302,
      "ول": 2303,
      "حس": 2304,
      "##se": 2305,
      "له": 2306,
      "##rr": 2307,
      "fi": 2308,
      "##me": 2309,
      "الغ": 2310,
      "##ien": 2311,
      "##رام": 2312,
      "قبل": 2313,
      "ههههه": 2314,
      "##مد": 2315,
      "##ere": 2316,
      "وحد": 2317,
      "##اية": 2318,
      "##صر": 2319,
      "ملي": 2320,
      "##ينة": 2321,
      "##يم": 2322,
      "وس": 2323,
      "يب": 2324,
      "kha": 2325,
      "رب": 2326,
      "##الله": 2327,
      "نح": 2328,
      "حي": 2329,
      "مح": 2330,
      "مث": 2331,
      "##gh": 2332,
      "ra": 2333,
      "##ul": 2334,
      "is": 2335,
      "يق": 2336,
      "##خر": 2337,
      "عليك": 2338,
      "تف": 2339,
      "na": 2340,
      "##يش": 2341,
      "##كت": 2342,
      "نش": 2343,
      "ar": 2344,
      "##اجة": 2345,
      "لق": 2346,
      "##روح": 2347,
      "##اتي": 2348,
      "سي": 2349,
      "لما": 2350,
      "اج": 2351,
      "##de": 2352,
      "##فة": 2353,
      "ta": 2354,
      "##سان": 2355,
      "ماشي": 2356,
      "لكن": 2357,
      "##سة": 2358,
      "عش": 2359,
      "so": 2360,
      "😂😂": 2361,
      "##اق": 2362,
      "con": 2363,
      "##لع": 2364,
      "##che": 2365,
      "رمضان": 2366,
      "pour": 2367,
      "وق": 2368,
      "عب": 2369,
      "وح": 2370,
      "##ani": 2371,
      "تو": 2372,
      "##bi": 2373,
      "لك": 2374,
      "##ba": 2375,
      "باش": 2376,
      "يم": 2377,
      "##ورة": 2378,
      "##ina": 2379,
      "##ادي": 2380,
      "تس": 2381,
      "##ans": 2382,
      "##ger": 2383,
      "##to": 2384,
      "##رم": 2385,
      "##لات": 2386,
      "ولي": 2387,
      "##ja": 2388,
      "su": 2389,
      "##ff": 2390,
      "da": 2391,
      "##رار": 2392,
      "##za": 2393,
      "يقول": 2394,
      "##فع": 2395,
      "##ريق": 2396,
      "##اين": 2397,
      "##وب": 2398,
      "##lh": 2399,
      "بش": 2400,
      "you": 2401,
      "##ge": 2402,
      "##راك": 2403,
      "##فظ": 2404,
      "##ده": 2405,
      "ين": 2406,
      "ba": 2407,
      "##زال": 2408,
      "and": 2409,
      "##سل": 2410,
      "تن": 2411,
      "tu": 2412,
      "##طر": 2413,
      "##هار": 2414,
      "##res": 2415,
      "ro": 2416,
      "بين": 2417,
      "دار": 2418,
      "يد": 2419,
      "راح": 2420,
      "##عرف": 2421,
      "به": 2422,
      "##end": 2423,
      "##مل": 2424,
      "##غير": 2425,
      "ce": 2426,
      "الر": 2427,
      "##نات": 2428,
      "20": 2429,
      "##ane": 2430,
      "##ci": 2431,
      "##sa": 2432,
      "##وة": 2433,
      "##الة": 2434,
      "ki": 2435,
      "ca": 2436,
      "برك": 2437,
      "##زيد": 2438,
      "##يل": 2439,
      "##وال": 2440,
      "اني": 2441,
      "##لاد": 2442,
      "لب": 2443,
      "bou": 2444,
      "##طن": 2445,
      "الشعب": 2446,
      "يج": 2447,
      "بك": 2448,
      "خو": 2449,
      "عليها": 2450,
      "اق": 2451,
      "الث": 2452,
      "##طة": 2453,
      "##تم": 2454,
      "we": 2455,
      "حق": 2456,
      "##ايم": 2457,
      "تص": 2458,
      "بصح": 2459,
      "وين": 2460,
      "##ire": 2461,
      "مست": 2462,
      "du": 2463,
      "عندي": 2464,
      "##ow": 2465,
      "##سن": 2466,
      "##kh": 2467,
      "راي": 2468,
      "##ham": 2469,
      "مب": 2470,
      "##ana": 2471,
      "دا": 2472,
      "كانت": 2473,
      "ram": 2474,
      "مج": 2475,
      "te": 2476,
      "يعني": 2477,
      "ماي": 2478,
      "mar": 2479,
      "ار": 2480,
      "##وز": 2481,
      "اليوم": 2482,
      "يكون": 2483,
      "ni": 2484,
      "بلي": 2485,
      "ben": 2486,
      "المس": 2487,
      "اد": 2488,
      "wal": 2489,
      "انه": 2490,
      "كب": 2491,
      "مق": 2492,
      "##ضل": 2493,
      "يارب": 2494,
      "##جة": 2495,
      "##لين": 2496,
      "##oun": 2497,
      "وانا": 2498,
      "مر": 2499,
      "نحب": 2500,
      "##ونا": 2501,
      "هنا": 2502,
      "تغ": 2503,
      "يست": 2504,
      "##مال": 2505,
      "##فيظ": 2506,
      "une": 2507,
      "نق": 2508,
      "##😂😂😂😂": 2509,
      "##oum": 2510,
      "الاس": 2511,
      "تج": 2512,
      "qui": 2513,
      "##pp": 2514,
      "it": 2515,
      "##به": 2516,
      "##لف": 2517,
      "mais": 2518,
      "الاخ": 2519,
      "##ههه": 2520,
      "do": 2521,
      "الل": 2522,
      "وص": 2523,
      "##مان": 2524,
      "##ers": 2525,
      "##مر": 2526,
      "ana": 2527,
      "##ux": 2528,
      "قلب": 2529,
      "alger": 2530,
      "العالم": 2531,
      "##que": 2532,
      "##fi": 2533,
      "##بت": 2534,
      "##قى": 2535,
      "كامل": 2536,
      "##راء": 2537,
      "##بارك": 2538,
      "si": 2539,
      "##لاب": 2540,
      "##ابة": 2541,
      "##اااا": 2542,
      "راك": 2543,
      "بح": 2544,
      "gh": 2545,
      "##اهم": 2546,
      "##hab": 2547,
      "نس": 2548,
      "حاجة": 2549,
      "##um": 2550,
      "st": 2551,
      "##رى": 2552,
      "دير": 2553,
      "##الب": 2554,
      "as": 2555,
      "ناس": 2556,
      "##اذ": 2557,
      "##بية": 2558,
      "##امي": 2559,
      "##قدر": 2560,
      "bl": 2561,
      "ham": 2562,
      "for": 2563,
      "##oul": 2564,
      "هم": 2565,
      "لع": 2566,
      "bel": 2567,
      "انك": 2568,
      "##وها": 2569,
      "خلي": 2570,
      "كت": 2571,
      "##lam": 2572,
      "الذ": 2573,
      "##hat": 2574,
      "الذي": 2575,
      "##از": 2576,
      "##ميع": 2577,
      "##خخ": 2578,
      "راه": 2579,
      "mon": 2580,
      "كيما": 2581,
      "تكون": 2582,
      "يه": 2583,
      "شع": 2584,
      "##وض": 2585,
      "لح": 2586,
      "هاد": 2587,
      "مخ": 2588,
      "##انية": 2589,
      "##pe": 2590,
      "بزا": 2591,
      "wlh": 2592,
      "##ite": 2593,
      "تقول": 2594,
      "##تش": 2595,
      "التي": 2596,
      "he": 2597,
      "of": 2598,
      "##ga": 2599,
      "##chi": 2600,
      "##وار": 2601,
      "##نيا": 2602,
      "##فهم": 2603,
      "##لية": 2604,
      "##ic": 2605,
      "قل": 2606,
      "وخ": 2607,
      "##هههههههههههههههه": 2608,
      "##ka": 2609,
      "حب": 2610,
      "##est": 2611,
      "##الح": 2612,
      "ka": 2613,
      "نص": 2614,
      "لازم": 2615,
      "روح": 2616,
      "##نية": 2617,
      "##زق": 2618,
      "##سر": 2619,
      "يط": 2620,
      "pro": 2621,
      "##جال": 2622,
      "man": 2623,
      "حفيظ": 2624,
      "تد": 2625,
      "##مت": 2626,
      "مك": 2627,
      "##دية": 2628,
      "##زة": 2629,
      "##صة": 2630,
      "##eb": 2631,
      "u200": 2632,
      "مال": 2633,
      "الار": 2634,
      "هذه": 2635,
      "##زوج": 2636,
      "3la": 2637,
      "##عت": 2638,
      "##ass": 2639,
      "fr": 2640,
      "شك": 2641,
      "تك": 2642,
      "pe": 2643,
      "##عل": 2644,
      "علاش": 2645,
      "ramad": 2646,
      "يص": 2647,
      "men": 2648,
      "اله": 2649,
      "##لال": 2650,
      "بق": 2651,
      "حبي": 2652,
      "شغل": 2653,
      "الخير": 2654,
      "شوية": 2655,
      "##اخ": 2656,
      "bi": 2657,
      "##ارك": 2658,
      "##عن": 2659,
      "اكثر": 2660,
      "##باح": 2661,
      "##ريب": 2662,
      "##ديد": 2663,
      "اما": 2664,
      "##ly": 2665,
      "##kom": 2666,
      "##3a": 2667,
      "المش": 2668,
      "هك": 2669,
      "no": 2670,
      "##ima": 2671,
      "اسم": 2672,
      "كاين": 2673,
      "اغ": 2674,
      "##ama": 2675,
      "شخص": 2676,
      "##راهم": 2677,
      "وه": 2678,
      "##دق": 2679,
      "##haha": 2680,
      "##ali": 2681,
      "وما": 2682,
      "##باب": 2683,
      "بعض": 2684,
      "حد": 2685,
      "##وان": 2686,
      "##06": 2687,
      "مص": 2688,
      "##وري": 2689,
      "كون": 2690,
      "وقت": 2691,
      "##ck": 2692,
      "##افي": 2693,
      "mer": 2694,
      "عام": 2695,
      "ومن": 2696,
      "##سلو": 2697,
      "hi": 2698,
      "##ess": 2699,
      "##ee": 2700,
      "والم": 2701,
      "##ريد": 2702,
      "##جر": 2703,
      "ak": 2704,
      "محمد": 2705,
      "بالله": 2706,
      "##hom": 2707,
      "pl": 2708,
      "##ver": 2709,
      "co": 2710,
      "po": 2711,
      "##در": 2712,
      "ai": 2713,
      "##ter": 2714,
      "فيك": 2715,
      "عاي": 2716,
      "للم": 2717,
      "للا": 2718,
      "##يتو": 2719,
      "الحمد": 2720,
      "##fa": 2721,
      "باب": 2722,
      "##جعل": 2723,
      "اول": 2724,
      "##حال": 2725,
      "lo": 2726,
      "الري": 2727,
      "احد": 2728,
      "ad": 2729,
      "##اض": 2730,
      "##tion": 2731,
      "##نين": 2732,
      "مكان": 2733,
      "منا": 2734,
      "rah": 2735,
      "##فو": 2736,
      "علم": 2737,
      "فقط": 2738,
      "بزاف": 2739,
      "حسب": 2740,
      "ست": 2741,
      "##دين": 2742,
      "خويا": 2743,
      "##لمة": 2744,
      "##ديك": 2745,
      "##رح": 2746,
      "فل": 2747,
      "لوك": 2748,
      "##ont": 2749,
      "es": 2750,
      "عشان": 2751,
      "##اتك": 2752,
      "هذي": 2753,
      "##ضحك": 2754,
      "##امة": 2755,
      "im": 2756,
      "sur": 2757,
      "لن": 2758,
      "وك": 2759,
      "##ara": 2760,
      "شيء": 2761,
      "##ation": 2762,
      "##حق": 2763,
      "##لاص": 2764,
      "##غي": 2765,
      "##ايا": 2766,
      "بم": 2767,
      "##سط": 2768,
      "##ربية": 2769,
      "صحا": 2770,
      "عبد": 2771,
      "##gu": 2772,
      "##ظيم": 2773,
      "pr": 2774,
      "لوكان": 2775,
      "لت": 2776,
      "##ادة": 2777,
      "حنا": 2778,
      "##zi": 2779,
      "##شر": 2780,
      "vous": 2781,
      "ju": 2782,
      "##kk": 2783,
      "##ct": 2784,
      "عليهم": 2785,
      "خاط": 2786,
      "وز": 2787,
      "3li": 2788,
      "اليه": 2789,
      "##ki": 2790,
      "u206": 2791,
      "فت": 2792,
      "##شاء": 2793,
      "##انة": 2794,
      "##lo": 2795,
      "ex": 2796,
      "زوج": 2797,
      "##مو": 2798,
      "##نه": 2799,
      "##فق": 2800,
      "##لاق": 2801,
      "نع": 2802,
      "##th": 2803,
      "مم": 2804,
      "سنة": 2805,
      "rab": 2806,
      "##ومة": 2807,
      "راني": 2808,
      "نهار": 2809,
      "##ثير": 2810,
      "##يك": 2811,
      "تست": 2812,
      "قاع": 2813,
      "##حتاج": 2814,
      "وانت": 2815,
      "مان": 2816,
      "##رات": 2817,
      "الاح": 2818,
      "##طب": 2819,
      "##sh": 2820,
      "tr": 2821,
      "##ca": 2822,
      "##قدرش": 2823,
      "##ment": 2824,
      "##hhhhhhhh": 2825,
      "ah": 2826,
      "المن": 2827,
      "##وى": 2828,
      "الوا": 2829,
      "##اوي": 2830,
      "مرة": 2831,
      "##راب": 2832,
      "##عه": 2833,
      "##لعب": 2834,
      "يدير": 2835,
      "##kt": 2836,
      "علينا": 2837,
      "##dou": 2838,
      "مثل": 2839,
      "##ji": 2840,
      "##adi": 2841,
      "يحفظ": 2842,
      "##دار": 2843,
      "##eme": 2844,
      "##رر": 2845,
      "##فل": 2846,
      "الرج": 2847,
      "لاب": 2848,
      "##ظر": 2849,
      "##جد": 2850,
      "##اة": 2851,
      "##غفر": 2852,
      "##رس": 2853,
      "##ement": 2854,
      "##oi": 2855,
      "mi": 2856,
      "الاست": 2857,
      "pa": 2858,
      "وهو": 2859,
      "عندك": 2860,
      "##تر": 2861,
      "ساع": 2862,
      "##لوب": 2863,
      "نخ": 2864,
      "##ايد": 2865,
      "الشي": 2866,
      "##يس": 2867,
      "che": 2868,
      "ho": 2869,
      "##نى": 2870,
      "##dd": 2871,
      "##va": 2872,
      "##ليل": 2873,
      "va": 2874,
      "##ari": 2875,
      "##اها": 2876,
      "##ريم": 2877,
      "حال": 2878,
      "##زل": 2879,
      "عليكم": 2880,
      "تاك": 2881,
      "##do": 2882,
      "##هل": 2883,
      "عط": 2884,
      "##leh": 2885,
      "##ناء": 2886,
      "ave": 2887,
      "##علي": 2888,
      "##ياة": 2889,
      "##لاح": 2890,
      "خط": 2891,
      "تحب": 2892,
      "##راي": 2893,
      "ليس": 2894,
      "بان": 2895,
      "##كو": 2896,
      "بص": 2897,
      "قلت": 2898,
      "سب": 2899,
      "وحدة": 2900,
      "##وص": 2901,
      "ramadan": 2902,
      "##ضع": 2903,
      "sou": 2904,
      "##راق": 2905,
      "رحم": 2906,
      "ايا": 2907,
      "نقول": 2908,
      "نف": 2909,
      "wallah": 2910,
      "المهم": 2911,
      "##مين": 2912,
      "باه": 2913,
      "##❤❤": 2914,
      "ta3": 2915,
      "##ort": 2916,
      "شفت": 2917,
      "bon": 2918,
      "مزال": 2919,
      "or": 2920,
      "لها": 2921,
      "هههه": 2922,
      "##سو": 2923,
      "صايم": 2924,
      "##لط": 2925,
      "اخر": 2926,
      "ري": 2927,
      "tw": 2928,
      "تط": 2929,
      "##ايل": 2930,
      "ولك": 2931,
      "كبير": 2932,
      "##ze": 2933,
      "يحب": 2934,
      "هل": 2935,
      "اط": 2936,
      "المت": 2937,
      "##iss": 2938,
      "##ولو": 2939,
      "هد": 2940,
      "كم": 2941,
      "كما": 2942,
      "المغ": 2943,
      "نج": 2944,
      "كن": 2945,
      "##خير": 2946,
      "u200d": 2947,
      "##فيق": 2948,
      "##دك": 2949,
      "my": 2950,
      "gu": 2951,
      "قت": 2952,
      "dans": 2953,
      "والو": 2954,
      "##vo": 2955,
      "شحال": 2956,
      "يف": 2957,
      "از": 2958,
      "mat": 2959,
      "الجنة": 2960,
      "ap": 2961,
      "##اتش": 2962,
      "##اشر": 2963,
      "##مه": 2964,
      "بط": 2965,
      "##har": 2966,
      "الض": 2967,
      "allah": 2968,
      "عق": 2969,
      "##ime": 2970,
      "##رجع": 2971,
      "نتا": 2972,
      "mn": 2973,
      "يك": 2974,
      "##روف": 2975,
      "نور": 2976,
      "##مس": 2977,
      "saha": 2978,
      "وف": 2979,
      "روحك": 2980,
      "at": 2981,
      "##ابات": 2982,
      "##نان": 2983,
      "زع": 2984,
      "عاش": 2985,
      "##ist": 2986,
      "##بط": 2987,
      "حاب": 2988,
      "10": 2989,
      "الاول": 2990,
      "##ub": 2991,
      "##co": 2992,
      "قلبي": 2993,
      "اكبر": 2994,
      "##واج": 2995,
      "dj": 2996,
      "##اته": 2997,
      "حم": 2998,
      "فيهم": 2999,
      "##هاش": 3000,
      "صباح": 3001,
      "##وووو": 3002,
      "لاي": 3003,
      "##تهم": 3004,
      "##endi": 3005,
      "##سمع": 3006,
      "##ذب": 3007,
      "##غم": 3008,
      "الاب": 3009,
      "don": 3010,
      "الجزايري": 3011,
      "plus": 3012,
      "##ماء": 3013,
      "شعب": 3014,
      "ga3": 3015,
      "##طور": 3016,
      "نب": 3017,
      "منها": 3018,
      "avec": 3019,
      "##der": 3020,
      "##كيل": 3021,
      "##قع": 3022,
      "راهم": 3023,
      "##ouk": 3024,
      "الدنيا": 3025,
      "##احب": 3026,
      "##mo": 3027,
      "##الا": 3028,
      "الحراك": 3029,
      "ير": 3030,
      "mah": 3031,
      "تعرف": 3032,
      "##ure": 3033,
      "انها": 3034,
      "yak": 3035,
      "بيه": 3036,
      "حول": 3037,
      "المع": 3038,
      "bo": 3039,
      "كلام": 3040,
      "تحت": 3041,
      "بغ": 3042,
      "##🇩🇿": 3043,
      "زي": 3044,
      "##فين": 3045,
      "ye": 3046,
      "الحق": 3047,
      "وجه": 3048,
      "da7": 3049,
      "بر": 3050,
      "##لاة": 3051,
      "ri": 3052,
      "خرج": 3053,
      "المست": 3054,
      "##فه": 3055,
      "that": 3056,
      "سع": 3057,
      "##ارات": 3058,
      "الصح": 3059,
      "ay": 3060,
      "ser": 3061,
      "العظيم": 3062,
      "داع": 3063,
      "##go": 3064,
      "kay": 3065,
      "##تني": 3066,
      "##hem": 3067,
      "##ktni": 3068,
      "da7ktni": 3069,
      "عي": 3070,
      "##قه": 3071,
      "##ill": 3072,
      "##هما": 3073,
      "##قال": 3074,
      "تلق": 3075,
      "##oui": 3076,
      "##تنا": 3077,
      "nhab": 3078,
      "بها": 3079,
      "##يري": 3080,
      "##ران": 3081,
      "##ati": 3082,
      "##لنا": 3083,
      "ياخ": 3084,
      "🤣🤣🤣": 3085,
      "lu": 3086,
      "يجي": 3087,
      "##اريخ": 3088,
      "##tte": 3089,
      "فان": 3090,
      "بنت": 3091,
      "##ضر": 3092,
      "3leh": 3093,
      "علاه": 3094,
      "3endi": 3095,
      "##هدر": 3096,
      "حك": 3097,
      "وفي": 3098,
      "النا": 3099,
      "##gi": 3100,
      "الوقت": 3101,
      "##خب": 3102,
      "بدون": 3103,
      "##ᆼᄋ": 3104,
      "در": 3105,
      "##اما": 3106,
      "##قيقة": 3107,
      "##ستور": 3108,
      "ja": 3109,
      "##aya": 3110,
      "##ide": 3111,
      "الرا": 3112,
      "##مجة": 3113,
      "قوة": 3114,
      "##ادر": 3115,
      "per": 3116,
      "ke": 3117,
      "##حو": 3118,
      "خاص": 3119,
      "باس": 3120,
      "bled": 3121,
      "##اكم": 3122,
      "##hamed": 3123,
      "منك": 3124,
      "##ديو": 3125,
      "##bah": 3126,
      "##صف": 3127,
      "رس": 3128,
      "##ple": 3129,
      "جميع": 3130,
      "##ard": 3131,
      "sah": 3132,
      "##طيه": 3133,
      "وكل": 3134,
      "##قدم": 3135,
      "##نسا": 3136,
      "mak": 3137,
      "سبح": 3138,
      "##med": 3139,
      "دولة": 3140,
      "not": 3141,
      "ود": 3142,
      "الفي": 3143,
      "احت": 3144,
      "tout": 3145,
      "تر": 3146,
      "##ith": 3147,
      "الدين": 3148,
      "جدا": 3149,
      "##لمين": 3150,
      "##pa": 3151,
      "داي": 3152,
      "##😂😂😂": 3153,
      "go": 3154,
      "##wah": 3155,
      "##ضة": 3156,
      "##lina": 3157,
      "##ini": 3158,
      "md": 3159,
      "##ــــ": 3160,
      "برا": 3161,
      "سبحان": 3162,
      "##روك": 3163,
      "شر": 3164,
      "##نوض": 3165,
      "منهم": 3166,
      "البي": 3167,
      "##كس": 3168,
      "😂😂😂😂": 3169,
      "احسن": 3170,
      "بلاد": 3171,
      "عادي": 3172,
      "بيها": 3173,
      "نشوف": 3174,
      "ههههههههه": 3175,
      "عل": 3176,
      "احب": 3177,
      "vo": 3178,
      "##ens": 3179,
      "ثم": 3180,
      "##سبب": 3181,
      "##ye": 3182,
      "meme": 3183,
      "##ظام": 3184,
      "##يبة": 3185,
      "##ین": 3186,
      "##ate": 3187,
      "ور": 3188,
      "##rou": 3189,
      "mes": 3190,
      "##حش": 3191,
      "##hal": 3192,
      "نتاع": 3193,
      "راهي": 3194,
      "عد": 3195,
      "##اول": 3196,
      "##ille": 3197,
      "##au": 3198,
      "##ذكر": 3199,
      "##rah": 3200,
      "lik": 3201,
      "##لاء": 3202,
      "##jib": 3203,
      "##كا": 3204,
      "ber": 3205,
      "kan": 3206,
      "تعب": 3207,
      "algerie": 3208,
      "min": 3209,
      "امين": 3210,
      "##بو": 3211,
      "دخ": 3212,
      "فع": 3213,
      "مغ": 3214,
      "mou": 3215,
      "##اله": 3216,
      "ac": 3217,
      "m3": 3218,
      "ly": 3219,
      "واع": 3220,
      "دو": 3221,
      "ندير": 3222,
      "fait": 3223,
      "##20": 3224,
      "mal": 3225,
      "mu": 3226,
      "بو": 3227,
      "##اهل": 3228,
      "##ارج": 3229,
      "نعم": 3230,
      "this": 3231,
      "##ونة": 3232,
      "##با": 3233,
      "جام": 3234,
      "##ثة": 3235,
      "سم": 3236,
      "ذلك": 3237,
      "يعرف": 3238,
      "مليح": 3239,
      "##han": 3240,
      "##فا": 3241,
      "المج": 3242,
      "##راه": 3243,
      "##ada": 3244,
      "فوق": 3245,
      "وط": 3246,
      "##قات": 3247,
      "hb": 3248,
      "bar": 3249,
      "جزاير": 3250,
      "##ance": 3251,
      "كيفاش": 3252,
      "dz": 3253,
      "والا": 3254,
      "وسلم": 3255,
      "عندو": 3256,
      "جاي": 3257,
      "##be": 3258,
      "##خلص": 3259,
      "##rez": 3260,
      "##ok": 3261,
      "##فض": 3262,
      "شوف": 3263,
      "201": 3264,
      "##تح": 3265,
      "افضل": 3266,
      "##الو": 3267,
      "عليا": 3268,
      "بالم": 3269,
      "res": 3270,
      "ولكن": 3271,
      "##uk": 3272,
      "عار": 3273,
      "##واح": 3274,
      "##زن": 3275,
      "الوطن": 3276,
      "والع": 3277,
      "المص": 3278,
      "يرحمها": 3279,
      "yek": 3280,
      "##😭😭😭😭": 3281,
      "يبارك": 3282,
      "ils": 3283,
      "اخي": 3284,
      "bien": 3285,
      "هاذ": 3286,
      "##تونا": 3287,
      "##ودة": 3288,
      "ده": 3289,
      "fe": 3290,
      "يو": 3291,
      "##7al": 3292,
      "##لوا": 3293,
      "هاذي": 3294,
      "##يدة": 3295,
      "hhhhh": 3296,
      "فهم": 3297,
      "##غة": 3298,
      "##مم": 3299,
      "لنا": 3300,
      "##ale": 3301,
      "son": 3302,
      "sh": 3303,
      "معاك": 3304,
      "##حر": 3305,
      "##يف": 3306,
      "##يات": 3307,
      "روحي": 3308,
      "ter": 3309,
      "غي": 3310,
      "اصلا": 3311,
      "صد": 3312,
      "بكل": 3313,
      "##نع": 3314,
      "##ts": 3315,
      "##je": 3316,
      "قص": 3317,
      "خلاص": 3318,
      "##قبل": 3319,
      "نحن": 3320,
      "شبع": 3321,
      "ند": 3322,
      "aut": 3323,
      "تي": 3324,
      "ممكن": 3325,
      "pla": 3326,
      "هادي": 3327,
      "tou": 3328,
      "##ich": 3329,
      "عاشور": 3330,
      "داعش": 3331,
      "##ذن": 3332,
      "يسرق": 3333,
      "مط": 3334,
      "##ماعة": 3335,
      "معاه": 3336,
      "ve": 3337,
      "##قو": 3338,
      "##ميل": 3339,
      "شكون": 3340,
      "##سف": 3341,
      "##افة": 3342,
      "abd": 3343,
      "درا": 3344,
      "##تكلم": 3345,
      "##واب": 3346,
      "اللو": 3347,
      "med": 3348,
      "##شف": 3349,
      "##po": 3350,
      "##ene": 3351,
      "tak": 3352,
      "می": 3353,
      "##والي": 3354,
      "##elle": 3355,
      "ضد": 3356,
      "عين": 3357,
      "pre": 3358,
      "الفر": 3359,
      "منه": 3360,
      "الماتش": 3361,
      "شهر": 3362,
      "الاع": 3363,
      "##oud": 3364,
      "عندنا": 3365,
      "خد": 3366,
      "##ابع": 3367,
      "##rek": 3368,
      "##واد": 3369,
      "تشوف": 3370,
      "هههههه": 3371,
      "ايه": 3372,
      "wh": 3373,
      "##بيه": 3374,
      "##فك": 3375,
      "##راة": 3376,
      "##ولك": 3377,
      "تاعك": 3378,
      "##per": 3379,
      "عرف": 3380,
      "dis": 3381,
      "##راري": 3382,
      "em": 3383,
      "يغ": 3384,
      "المح": 3385,
      "##fe": 3386,
      "##hhh": 3387,
      "##ياء": 3388,
      "##طيك": 3389,
      "الظ": 3390,
      "لات": 3391,
      "##جم": 3392,
      "##hek": 3393,
      "##ضرب": 3394,
      "لهم": 3395,
      "mas": 3396,
      "اجل": 3397,
      "صف": 3398,
      "##بيع": 3399,
      "##ضا": 3400,
      "اعت": 3401,
      "اخت": 3402,
      "kar": 3403,
      "##وات": 3404,
      "العاشر": 3405,
      "all": 3406,
      "##urs": 3407,
      "##rak": 3408,
      "##ثل": 3409,
      "##طونا": 3410,
      "الاي": 3411,
      "##واه": 3412,
      "##ديه": 3413,
      "راجع": 3414,
      "ته": 3415,
      "##ااا": 3416,
      "امير": 3417,
      "##سه": 3418,
      "##قا": 3419,
      "شكرا": 3420,
      "تنوض": 3421,
      "سيد": 3422,
      "##خلي": 3423,
      "الدولة": 3424,
      "##ظم": 3425,
      "##راح": 3426,
      "##بيب": 3427,
      "ليه": 3428,
      "الدراهم": 3429,
      "##كره": 3430,
      "الاحرار": 3431,
      "حساب": 3432,
      "wah": 3433,
      "##uu": 3434,
      "والت": 3435,
      "rabi": 3436,
      "##ديدة": 3437,
      "جد": 3438,
      "##شة": 3439,
      "راجل": 3440,
      "العالمين": 3441,
      "just": 3442,
      "ami": 3443,
      "##قص": 3444,
      "cont": 3445,
      "ga": 3446,
      "##نوات": 3447,
      "انسان": 3448,
      "tra": 3449,
      "انتي": 3450,
      "##ft": 3451,
      "##عر": 3452,
      "##حيح": 3453,
      "مار": 3454,
      "12": 3455,
      "طيب": 3456,
      "##سبة": 3457,
      "##ors": 3458,
      "elle": 3459,
      "moi": 3460,
      "ترك": 3461,
      "bz": 3462,
      "خر": 3463,
      "##بد": 3464,
      "رانا": 3465,
      "##حدث": 3466,
      "vi": 3467,
      "##اود": 3468,
      "لاع": 3469,
      "sam": 3470,
      "الاج": 3471,
      "##وية": 3472,
      "الاسلام": 3473,
      "##les": 3474,
      "kol": 3475,
      "comp": 3476,
      "##ضح": 3477,
      "##ita": 3478,
      "##كتب": 3479,
      "##بال": 3480,
      "صاحب": 3481,
      "يرحمو": 3482,
      "البلاد": 3483,
      "شف": 3484,
      "salam": 3485,
      "##علم": 3486,
      "رح": 3487,
      "##9aw": 3488,
      "##منى": 3489,
      "with": 3490,
      "dar": 3491,
      "##eli": 3492,
      "##يتك": 3493,
      "ﺍﻟ": 3494,
      "جي": 3495,
      "خال": 3496,
      "فى": 3497,
      "والس": 3498,
      "chi": 3499,
      "اين": 3500,
      "علاجال": 3501,
      "arwah": 3502,
      "دايما": 3503,
      "##سا": 3504,
      "استاذ": 3505,
      "اهل": 3506,
      "##ise": 3507,
      "الوكيل": 3508,
      "مز": 3509,
      "حلو": 3510,
      "##طار": 3511,
      "ko": 3512,
      "ابن": 3513,
      "المخ": 3514,
      "##😍😍": 3515,
      "tro": 3516,
      "##ورونا": 3517,
      "عندما": 3518,
      "فرنسا": 3519,
      "عسك": 3520,
      "bla": 3521,
      "العام": 3522,
      "الجام": 3523,
      "هدا": 3524,
      "كلمة": 3525,
      "نحبك": 3526,
      "قمجة": 3527,
      "3lina": 3528,
      "##iti": 3529,
      "der": 3530,
      "##ركة": 3531,
      "toi": 3532,
      "الحب": 3533,
      "gal": 3534,
      "تبون": 3535,
      "نتي": 3536,
      "##جا": 3537,
      "مه": 3538,
      "دستور": 3539,
      "الزلا": 3540,
      "وهي": 3541,
      "by": 3542,
      "ريي": 3543,
      "الارض": 3544,
      "نعرف": 3545,
      "عندهم": 3546,
      "##كرت": 3547,
      "ali": 3548,
      "##ssi": 3549,
      "شويه": 3550,
      "مليون": 3551,
      "##aaaa": 3552,
      "حاج": 3553,
      "##دموع": 3554,
      "##طا": 3555,
      "##اعة": 3556,
      "yekhi": 3557,
      "##du": 3558,
      "قول": 3559,
      "hab": 3560,
      "##قف": 3561,
      "but": 3562,
      "bu": 3563,
      "##dj": 3564,
      "##اتو": 3565,
      "كثير": 3566,
      "حوم": 3567,
      "لقيتو": 3568,
      "##قر": 3569,
      "##الية": 3570,
      "عمر": 3571,
      "##ata": 3572,
      "19": 3573,
      "موا": 3574,
      "##ذلك": 3575,
      "can": 3576,
      "u2066": 3577,
      "ch7al": 3578,
      "sem": 3579,
      "mohamed": 3580,
      "are": 3581,
      "##صب": 3582,
      "ريا": 3583,
      "##دت": 3584,
      "##وبي": 3585,
      "دخل": 3586,
      "##ght": 3587,
      "لانه": 3588,
      "يجيب": 3589,
      "comme": 3590,
      "جا": 3591,
      "##رين": 3592,
      "مسك": 3593,
      "##لقاش": 3594,
      "كاش": 3595,
      "طلع": 3596,
      "الحياة": 3597,
      "انو": 3598,
      "اعطونا": 3599,
      "احنا": 3600,
      "gt": 3601,
      "##فتح": 3602,
      "وربي": 3603,
      "##wi": 3604,
      "الرحم": 3605,
      "##وء": 3606,
      "top": 3607,
      "##man": 3608,
      "بالع": 3609,
      "نم": 3610,
      "3a": 3611,
      "ليك": 3612,
      "hbib": 3613,
      "هذ": 3614,
      "##vi": 3615,
      "br": 3616,
      "##جزاير": 3617,
      "##دع": 3618,
      "##dir": 3619,
      "تعطيه": 3620,
      "hadi": 3621,
      "حلاب": 3622,
      "اللوز": 3623,
      "vra": 3624,
      "##سطين": 3625,
      "##ena": 3626,
      "##ريقة": 3627,
      "##fer": 3628,
      "ايام": 3629,
      "ذراري": 3630,
      "gr": 3631,
      "وكان": 3632,
      "##we": 3633,
      "لماعن": 3634,
      "##نب": 3635,
      "##3b": 3636,
      "فا": 3637,
      "gha": 3638,
      "جاب": 3639,
      "##يييي": 3640,
      "nous": 3641,
      "السيا": 3642,
      "قريب": 3643,
      "##ele": 3644,
      "rak": 3645,
      "راجعون": 3646,
      "مني": 3647,
      "##ايي": 3648,
      "lah": 3649,
      "##ue": 3650,
      "يمكن": 3651,
      "rohek": 3652,
      "فك": 3653,
      "تاني": 3654,
      "##جه": 3655,
      "##مينست": 3656,
      "##واء": 3657,
      "ميقدرش": 3658,
      "hak": 3659,
      "##ito": 3660,
      "may": 3661,
      "زح": 3662,
      "شعال": 3663,
      "تغسلو": 3664,
      "was": 3665,
      "الاخر": 3666,
      "وشمن": 3667,
      "مري": 3668,
      "##شور": 3669,
      "##فلة": 3670,
      "##اكل": 3671,
      "صحابي": 3672,
      "بيك": 3673,
      "وار": 3674,
      "##وارث": 3675,
      "نست": 3676,
      "har": 3677,
      "رج": 3678,
      "ولاد": 3679,
      "لكل": 3680,
      "wel": 3681,
      "ابو": 3682,
      "u2069": 3683,
      "##فور": 3684,
      "شبعتونا": 3685,
      "حبيب": 3686,
      "##gn": 3687,
      "نحبكم": 3688,
      "كبيرة": 3689,
      "السعو": 3690,
      "كنا": 3691,
      "بدموع": 3692,
      "##انون": 3693,
      "##فرج": 3694,
      "##اللهم": 3695,
      "الانسان": 3696,
      "##ouf": 3697,
      "mahrez": 3698,
      "لمن": 3699,
      "المد": 3700,
      "##one": 3701,
      "طريق": 3702,
      "##rrrr": 3703,
      "اختي": 3704,
      "fo": 3705,
      "##ons": 3706,
      "maz": 3707,
      "ghir": 3708,
      "لخ": 3709,
      "njib": 3710,
      "بسبب": 3711,
      "##ليك": 3712,
      "هناك": 3713,
      "يخرج": 3714,
      "صغ": 3715,
      "تاكلين": 3716,
      "bas": 3717,
      "فيمينست": 3718,
      "يشفي": 3719,
      "##الع": 3720,
      "##ناش": 3721,
      "عاد": 3722,
      "حومتك": 3723,
      "صالح": 3724,
      "انتم": 3725,
      "يسرقهم": 3726,
      "والح": 3727,
      "وات": 3728,
      "##بعد": 3729,
      "##وله": 3730,
      "نط": 3731,
      "us": 3732,
      "دور": 3733,
      "لكم": 3734,
      "خرطي": 3735,
      "نفسك": 3736,
      "خلق": 3737,
      "كلش": 3738,
      "##ليش": 3739,
      "انشاء": 3740,
      "##انت": 3741,
      "##ونس": 3742,
      "يهدي": 3743,
      "##ليه": 3744,
      "nta": 3745,
      "مصر": 3746,
      "##عية": 3747,
      "ني": 3748,
      "m3a": 3749,
      "السي": 3750,
      "بالك": 3751,
      "الشر": 3752,
      "##ايق": 3753,
      "##ssa": 3754,
      "زلات": 3755,
      "حسبتها": 3756,
      "واخ": 3757,
      "##وقف": 3758,
      "الكلام": 3759,
      "رجع": 3760,
      "##زير": 3761,
      "كف": 3762,
      "##21": 3763,
      "cv": 3764,
      "kam": 3765,
      "##معة": 3766,
      "t3": 3767,
      "##كمل": 3768,
      "##iiii": 3769,
      "القلب": 3770,
      "واشنو": 3771,
      "ههه": 3772,
      "suis": 3773,
      "متلقاش": 3774,
      "##قب": 3775,
      "##لامي": 3776,
      "##اعد": 3777,
      "##ins": 3778,
      "ونعم": 3779,
      "##روب": 3780,
      "jour": 3781,
      "sal": 3782,
      "lt": 3783,
      "hou": 3784,
      "##art": 3785,
      "لعب": 3786,
      "الكوارث": 3787,
      "الانت": 3788,
      "السلام": 3789,
      "##lak": 3790,
      "مين": 3791,
      "##فرح": 3792,
      "ولو": 3793,
      "الاش": 3794,
      "##ربة": 3795,
      "cou": 3796,
      "##lou": 3797,
      "بشوي": 3798,
      "رييس": 3799,
      "المسلمين": 3800,
      "m9aw": 3801,
      "بيت": 3802,
      "aw": 3803,
      "tem": 3804,
      "fto": 3805,
      "الخاوي": 3806,
      "جديد": 3807,
      "وكي": 3808,
      "خل": 3809,
      "##وتي": 3810,
      "سيا": 3811,
      "شوي": 3812,
      "##ram": 3813,
      "امام": 3814,
      "واح": 3815,
      "ftorek": 3816,
      "##اير": 3817,
      "اخرى": 3818,
      "عندها": 3819,
      "av": 3820,
      "##ديم": 3821,
      "حكم": 3822,
      "ابي": 3823,
      "##طف": 3824,
      "##bar": 3825,
      "عايش": 3826,
      "##تمع": 3827,
      "الاف": 3828,
      "رجال": 3829,
      "ملا": 3830,
      "yakho": 3831,
      "قات": 3832,
      "##لوم": 3833,
      "u200d♀": 3834,
      "##كلة": 3835,
      "##حين": 3836,
      "##sk": 3837,
      "rep": 3838,
      "لج": 3839,
      "لد": 3840,
      "app": 3841,
      "صار": 3842,
      "يجب": 3843,
      "ماع": 3844,
      "دع": 3845,
      "##ays": 3846,
      "##zaf": 3847,
      "تجي": 3848,
      "##bo": 3849,
      "مافي": 3850,
      "nhabek": 3851,
      "العرب": 3852,
      "هوما": 3853,
      "##🤣🤣🤣🤣": 3854,
      "hamdou": 3855,
      "داير": 3856,
      "نظ": 3857,
      "سلم": 3858,
      "مل": 3859,
      "بما": 3860,
      "##ونه": 3861,
      "العلم": 3862,
      "##pi": 3863,
      "الموا": 3864,
      "##ايف": 3865,
      "اث": 3866,
      "bs": 3867,
      "##lilah": 3868,
      "ken": 3869,
      "##لاه": 3870,
      "دين": 3871,
      "والش": 3872,
      "dit": 3873,
      "يروح": 3874,
      "##صحاب": 3875,
      "حل": 3876,
      "كلها": 3877,
      "نفسي": 3878,
      "##تب": 3879,
      "زيد": 3880,
      "jo": 3881,
      "قالت": 3882,
      "ghed": 3883,
      "sont": 3884,
      "##ast": 3885,
      "##لد": 3886,
      "bra": 3887,
      "عنه": 3888,
      "الصبر": 3889,
      "khati": 3890,
      "الرجال": 3891,
      "ماش": 3892,
      "قط": 3893,
      "##زع": 3894,
      "التح": 3895,
      "ti": 3896,
      "##خرج": 3897,
      "faire": 3898,
      "مرت": 3899,
      "ارحم": 3900,
      "بني": 3901,
      "يشوف": 3902,
      "##oub": 3903,
      "ma3": 3904,
      "##zz": 3905,
      "##kha": 3906,
      "##ايه": 3907,
      "##بك": 3908,
      "##ᅧᆼᄋ": 3909,
      "ينت": 3910,
      "تروح": 3911,
      "وام": 3912,
      "قالي": 3913,
      "fin": 3914,
      "فلا": 3915,
      "العربية": 3916,
      "##يين": 3917,
      "pers": 3918,
      "##طق": 3919,
      "##هههههههههههههههههههههههههههههههه": 3920,
      "العص": 3921,
      "##اهد": 3922,
      "##ome": 3923,
      "قالو": 3924,
      "واس": 3925,
      "##راد": 3926,
      "ولد": 3927,
      "##نام": 3928,
      "بخ": 3929,
      "الحك": 3930,
      "##tter": 3931,
      "m9awed": 3932,
      "جات": 3933,
      "nt": 3934,
      "##اضي": 3935,
      "نفسه": 3936,
      "الشخص": 3937,
      "##ضاء": 3938,
      "بالن": 3939,
      "##توما": 3940,
      "oui": 3941,
      "راس": 3942,
      "##ريت": 3943,
      "##شوف": 3944,
      "حياتي": 3945,
      "tbah": 3946,
      "الفت": 3947,
      "رغم": 3948,
      "نا": 3949,
      "##سيح": 3950,
      "قر": 3951,
      "##ناه": 3952,
      "##الى": 3953,
      "##حن": 3954,
      "om": 3955,
      "##ᅧᆼ우": 3956,
      "##ry": 3957,
      "##وهم": 3958,
      "##orm": 3959,
      "##ereh": 3960,
      "walah": 3961,
      "علمانية": 3962,
      "##بين": 3963,
      "##وجد": 3964,
      "مشي": 3965,
      "جنا": 3966,
      "##قيق": 3967,
      "##لله": 3968,
      "##ᅵᆷ": 3969,
      "سلام": 3970,
      "##cu": 3971,
      "##قم": 3972,
      "مف": 3973,
      "وير": 3974,
      "بعيد": 3975,
      "تخرج": 3976,
      "فات": 3977,
      "##ida": 3978,
      "##are": 3979,
      "hamdoulilah": 3980,
      "المو": 3981,
      "##هة": 3982,
      "##ضية": 3983,
      "##all": 3984,
      "##اتها": 3985,
      "hu": 3986,
      "تعلم": 3987,
      "##مني": 3988,
      "##فف": 3989,
      "trop": 3990,
      "pet": 3991,
      "##ريح": 3992,
      "مهم": 3993,
      "خا": 3994,
      "##ong": 3995,
      "##واف": 3996,
      "##الت": 3997,
      "##بيك": 3998,
      "طي": 3999,
      "ont": 4000,
      "قدام": 4001,
      "المغرب": 4002,
      "الصف": 4003,
      "سمع": 4004,
      "مام": 4005,
      "##زين": 4006,
      "عسكرية": 4007,
      "gen": 4008,
      "فطور": 4009,
      "bereh": 4010,
      "##لقة": 4011,
      "##طان": 4012,
      "##mou": 4013,
      "كانو": 4014,
      "واب": 4015,
      "##dr": 4016,
      "ghedwa": 4017,
      "##رجة": 4018,
      "مدنية": 4019,
      "ياك": 4020,
      "بار": 4021,
      "##9i": 4022,
      "نها": 4023,
      "##si": 4024,
      "##eri": 4025,
      "##طيع": 4026,
      "##رز": 4027,
      "ass": 4028,
      "##زيز": 4029,
      "راسك": 4030,
      "تا": 4031,
      "وعلى": 4032,
      "والي": 4033,
      "نو": 4034,
      "##اره": 4035,
      "##ظة": 4036,
      "بج": 4037,
      "##لوك": 4038,
      "دون": 4039,
      "تعلي": 4040,
      "دراجي": 4041,
      "الوح": 4042,
      "ras": 4043,
      "##use": 4044,
      "المنا": 4045,
      "vide": 4046,
      "ent": 4047,
      "الصلاة": 4048,
      "##iri": 4049,
      "طول": 4050,
      "##روع": 4051,
      "eta": 4052,
      "ng": 4053,
      "##خابات": 4054,
      "##ame": 4055,
      "##ید": 4056,
      "##بير": 4057,
      "##aba": 4058,
      "##ood": 4059,
      "##عمل": 4060,
      "dire": 4061,
      "have": 4062,
      "انهم": 4063,
      "##اون": 4064,
      "ديما": 4065,
      "##طني": 4066,
      "##صي": 4067,
      "موج": 4068,
      "##يران": 4069,
      "##ona": 4070,
      "يرزق": 4071,
      "like": 4072,
      "زعما": 4073,
      "قلوب": 4074,
      "##لبة": 4075,
      "##fo": 4076,
      "مسل": 4077,
      "##lm": 4078,
      "##بيا": 4079,
      "🤣🤣": 4080,
      "##int": 4081,
      "za": 4082,
      "rou": 4083,
      "##ذر": 4084,
      "##era": 4085,
      "مازال": 4086,
      "##ouli": 4087,
      "bzf": 4088,
      "##ven": 4089,
      "صلى": 4090,
      "##سين": 4091,
      "هكذا": 4092,
      "باي": 4093,
      "##ose": 4094,
      "your": 4095,
      "للت": 4096,
      "ok": 4097,
      "eu": 4098,
      "##حمل": 4099,
      "سن": 4100,
      "معاهم": 4101,
      "##صار": 4102,
      "ms": 4103,
      "100": 4104,
      "راكي": 4105,
      "ku": 4106,
      "##llah": 4107,
      "##حل": 4108,
      "زه": 4109,
      "##tek": 4110,
      "يزيد": 4111,
      "زاد": 4112,
      "صحيح": 4113,
      "kho": 4114,
      "##ook": 4115,
      "يخدم": 4116,
      "fan": 4117,
      "##دل": 4118,
      "ed": 4119,
      "##خخخخ": 4120,
      "وليس": 4121,
      "##ᅵᆷᄋ": 4122,
      "طب": 4123,
      "يقدر": 4124,
      "التعلي": 4125,
      "العم": 4126,
      "##ولا": 4127,
      "non": 4128,
      "##olo": 4129,
      "15": 4130,
      "##ll": 4131,
      "##ريك": 4132,
      "##ete": 4133,
      "الواحد": 4134,
      "سر": 4135,
      "##cho": 4136,
      "كيفاه": 4137,
      "##men": 4138,
      "حط": 4139,
      "bn": 4140,
      "بنا": 4141,
      "وهذا": 4142,
      "##واحد": 4143,
      "##كش": 4144,
      "فلسطين": 4145,
      "ههههههه": 4146,
      "التو": 4147,
      "لش": 4148,
      "بكري": 4149,
      "ولم": 4150,
      "hirak": 4151,
      "l9": 4152,
      "اعلم": 4153,
      "##uis": 4154,
      "peu": 4155,
      "قب": 4156,
      "خاصة": 4157,
      "وبعد": 4158,
      "فينا": 4159,
      "##ᅵᆷ영우": 4160,
      "##هداء": 4161,
      "##وفق": 4162,
      "##ومي": 4163,
      "لس": 4164,
      "##بيل": 4165,
      "##ber": 4166,
      "خص": 4167,
      "فاي": 4168,
      "임영우": 4169,
      "algerien": 4170,
      "اقول": 4171,
      "##mm": 4172,
      "الهد": 4173,
      "بالت": 4174,
      "quand": 4175,
      "##ابل": 4176,
      "كار": 4177,
      "##تين": 4178,
      "##سية": 4179,
      "جماعة": 4180,
      "hal": 4181,
      "##had": 4182,
      "nas": 4183,
      "للاسف": 4184,
      "##ko": 4185,
      "الذين": 4186,
      "##oooo": 4187,
      "##راف": 4188,
      "##🇩🇿🇩🇿": 4189,
      "##يته": 4190,
      "##صد": 4191,
      "##هاب": 4192,
      "سنين": 4193,
      "يلعب": 4194,
      "amp": 4195,
      "##sta": 4196,
      "##فون": 4197,
      "khir": 4198,
      "##هذا": 4199,
      "##ناة": 4200,
      "##ble": 4201,
      "بنات": 4202,
      "##شو": 4203,
      "has": 4204,
      "sab": 4205,
      "ver": 4206,
      "##lal": 4207,
      "يار": 4208,
      "pen": 4209,
      "##ايب": 4210,
      "که": 4211,
      "ze": 4212,
      "بغيت": 4213,
      "mus": 4214,
      "##شان": 4215,
      "nti": 4216,
      "معايا": 4217,
      "##سلوج": 4218,
      "ورا": 4219,
      "##بب": 4220,
      "ديال": 4221,
      "##9a": 4222,
      "عمل": 4223,
      "##no": 4224,
      "كله": 4225,
      "صدق": 4226,
      "##هات": 4227,
      "حياتك": 4228,
      "##lar": 4229,
      "##هور": 4230,
      "الجيش": 4231,
      "##حه": 4232,
      "##ليب": 4233,
      "الاص": 4234,
      "صغير": 4235,
      "ابت": 4236,
      "##kan": 4237,
      "##يتها": 4238,
      "person": 4239,
      "##rat": 4240,
      "##oma": 4241,
      "##امن": 4242,
      "11": 4243,
      "af": 4244,
      "دراهم": 4245,
      "zou": 4246,
      "##خي": 4247,
      "##راش": 4248,
      "##حيل": 4249,
      "يدي": 4250,
      "roho": 4251,
      "نروح": 4252,
      "##وضوع": 4253,
      "درت": 4254,
      "راب": 4255,
      "ونت": 4256,
      "##ity": 4257,
      "##ます": 4258,
      "##ayer": 4259,
      "##ces": 4260,
      "##لاث": 4261,
      "عز": 4262,
      "عيد": 4263,
      "##ud": 4264,
      "##♥♥": 4265,
      "واذا": 4266,
      "رسول": 4267,
      "طبع": 4268,
      "ويع": 4269,
      "cr": 4270,
      "كلم": 4271,
      "##لاش": 4272,
      "فار": 4273,
      "##ساب": 4274,
      "مرض": 4275,
      "dr": 4276,
      "للع": 4277,
      "فو": 4278,
      "##bes": 4279,
      "##ke": 4280,
      "حرام": 4281,
      "ليا": 4282,
      "عيب": 4283,
      "لماذا": 4284,
      "امي": 4285,
      "دول": 4286,
      "##لل": 4287,
      "الشع": 4288,
      "يفهم": 4289,
      "بلد": 4290,
      "##bou": 4291,
      "##ربح": 4292,
      "احس": 4293,
      "##نك": 4294,
      "كريم": 4295,
      "mazal": 4296,
      "hada": 4297,
      "دم": 4298,
      "##الف": 4299,
      "##نون": 4300,
      "if": 4301,
      "##تا": 4302,
      "inter": 4303,
      "عنده": 4304,
      "##lat": 4305,
      "بخير": 4306,
      "far": 4307,
      "mil": 4308,
      "شيفور": 4309,
      "بب": 4310,
      "car": 4311,
      "كثر": 4312,
      "##ung": 4313,
      "##mes": 4314,
      "##است": 4315,
      "##ارع": 4316,
      "tah": 4317,
      "##انيا": 4318,
      "##con": 4319,
      "##راو": 4320,
      "aku": 4321,
      "##7ed": 4322,
      "خي": 4323,
      "cette": 4324,
      "الامر": 4325,
      "##jour": 4326,
      "##طال": 4327,
      "المنت": 4328,
      "##leb": 4329,
      "sp": 4330,
      "القران": 4331,
      "عمي": 4332,
      "العربي": 4333,
      "30": 4334,
      "salah": 4335,
      "##isa": 4336,
      "##افية": 4337,
      "ضي": 4338,
      "يسم": 4339,
      "صدي": 4340,
      "tous": 4341,
      "##طيف": 4342,
      "النظام": 4343,
      "الجزايرية": 4344,
      "ramadhan": 4345,
      "هكا": 4346,
      "yg": 4347,
      "تولي": 4348,
      "via": 4349,
      "جامي": 4350,
      "اكيد": 4351,
      "vie": 4352,
      "##ank": 4353,
      "هذاك": 4354,
      "##voir": 4355,
      "##zy": 4356,
      "##ورو": 4357,
      "fel": 4358,
      "خدم": 4359,
      "لالا": 4360,
      "##ﷺﷺ": 4361,
      "hahaha": 4362,
      "راهو": 4363,
      "##طشي": 4364,
      "hai": 4365,
      "فرح": 4366,
      "dep": 4367,
      "للح": 4368,
      "عنا": 4369,
      "ارض": 4370,
      "دوك": 4371,
      "🇩🇿": 4372,
      "l3": 4373,
      "##الات": 4374,
      "machi": 4375,
      "حابين": 4376,
      "اذ": 4377,
      "سبب": 4378,
      "لف": 4379,
      "##انه": 4380,
      "##طل": 4381,
      "##هب": 4382,
      "##😁😁": 4383,
      "sy": 4384,
      "##تار": 4385,
      "att": 4386,
      "##صلح": 4387,
      "قطر": 4388,
      "السيد": 4389,
      "كورونا": 4390,
      "##فاع": 4391,
      "##ila": 4392,
      "##ساء": 4393,
      "video": 4394,
      "امر": 4395,
      "رد": 4396,
      "اعط": 4397,
      "خلا": 4398,
      "وغ": 4399,
      "بوت": 4400,
      "##زو": 4401,
      "فسيح": 4402,
      "##lek": 4403,
      "##عين": 4404,
      "##ally": 4405,
      "##زه": 4406,
      "يال": 4407,
      "اللا": 4408,
      "##kkkk": 4409,
      "##ديت": 4410,
      "ساعة": 4411,
      "tal": 4412,
      "they": 4413,
      "##واي": 4414,
      "khti": 4415,
      "ray": 4416,
      "شاف": 4417,
      "😭😭😭": 4418,
      "lui": 4419,
      "up": 4420,
      "kn": 4421,
      "مكانش": 4422,
      "ربنا": 4423,
      "amine": 4424,
      "قدر": 4425,
      "قي": 4426,
      "رجل": 4427,
      "جل": 4428,
      "##جلي": 4429,
      "##فلي": 4430,
      "##edi": 4431,
      "المق": 4432,
      "##نوب": 4433,
      "##توب": 4434,
      "cha3b": 4435,
      "etre": 4436,
      "##احبي": 4437,
      "wla": 4438,
      "##ade": 4439,
      "pres": 4440,
      "za3": 4441,
      "kima": 4442,
      "فعلا": 4443,
      "##ذاب": 4444,
      "مسكين": 4445,
      "##ish": 4446,
      "tf": 4447,
      "هاك": 4448,
      "##امات": 4449,
      "هيا": 4450,
      "##وره": 4451,
      "ترا": 4452,
      "سل": 4453,
      "##اصمة": 4454,
      "شباب": 4455,
      "للج": 4456,
      "yah": 4457,
      "day": 4458,
      "han": 4459,
      "نك": 4460,
      "##تما": 4461,
      "الاق": 4462,
      "للش": 4463,
      "بدا": 4464,
      "منت": 4465,
      "##ولنا": 4466,
      "what": 4467,
      "##قين": 4468,
      "##ووو": 4469,
      "##ديث": 4470,
      "comment": 4471,
      "فاهم": 4472,
      "الحل": 4473,
      "ايضا": 4474,
      "##idi": 4475,
      "##قطع": 4476,
      "ليش": 4477,
      "##ريه": 4478,
      "الرييس": 4479,
      "##ذهب": 4480,
      "واحدة": 4481,
      "زيت": 4482,
      "ضحك": 4483,
      "حين": 4484,
      "##فى": 4485,
      "hhhh": 4486,
      "انس": 4487,
      "اسب": 4488,
      "فيا": 4489,
      "باسم": 4490,
      "##خاص": 4491,
      "##iste": 4492,
      "##عيش": 4493,
      "الايام": 4494,
      "say": 4495,
      "##وريا": 4496,
      "##راس": 4497,
      "##ould": 4498,
      "فيكم": 4499,
      "##راحة": 4500,
      "reg": 4501,
      "##مار": 4502,
      "الات": 4503,
      "جب": 4504,
      "##iba": 4505,
      "نورمال": 4506,
      "##ناها": 4507,
      "##اتهم": 4508,
      "##عيد": 4509,
      "nou": 4510,
      "##up": 4511,
      "سما": 4512,
      "dan": 4513,
      "yer": 4514,
      "##ستر": 4515,
      "bez": 4516,
      "كذا": 4517,
      "lm": 4518,
      "##jo": 4519,
      "##وجه": 4520,
      "مول": 4521,
      "حالة": 4522,
      "##cer": 4523,
      "rien": 4524,
      "باذن": 4525,
      "##amais": 4526,
      "يما": 4527,
      "صوت": 4528,
      "##nya": 4529,
      "الجز": 4530,
      "منو": 4531,
      "فض": 4532,
      "احمد": 4533,
      "😂😂😂😂😂": 4534,
      "##نم": 4535,
      "##akh": 4536,
      "قالك": 4537,
      "يبقى": 4538,
      "##نسي": 4539,
      "##يرو": 4540,
      "##gue": 4541,
      "الرس": 4542,
      "er": 4543,
      "مهما": 4544,
      "wor": 4545,
      "لاباس": 4546,
      "##ink": 4547,
      "##يتر": 4548,
      "الاه": 4549,
      "جيب": 4550,
      "نز": 4551,
      "##yy": 4552,
      "ثاني": 4553,
      "اصبح": 4554,
      "حاجه": 4555,
      "##فيش": 4556,
      "hna": 4557,
      "##يط": 4558,
      "##so": 4559,
      "عمري": 4560,
      "محرز": 4561,
      "عال": 4562,
      "##تكون": 4563,
      "##7a": 4564,
      "الاولى": 4565,
      "kal": 4566,
      "##روض": 4567,
      "aussi": 4568,
      "مثلا": 4569,
      "##اتنا": 4570,
      "قادر": 4571,
      "اعرف": 4572,
      "صحاب": 4573,
      "##sse": 4574,
      "الشيخ": 4575,
      "##نسية": 4576,
      "abdel": 4577,
      "اض": 4578,
      "زطشي": 4579,
      "البار": 4580,
      "za3ma": 4581,
      "وهم": 4582,
      "بيهم": 4583,
      "##ande": 4584,
      "dy": 4585,
      "##اعر": 4586,
      "ara": 4587,
      "خارج": 4588,
      "sha": 4589,
      "تنت": 4590,
      "جيت": 4591,
      "راحت": 4592,
      "تل": 4593,
      "ختي": 4594,
      "##ويل": 4595,
      "##خلو": 4596,
      "محت": 4597,
      "راكم": 4598,
      "الزوالي": 4599,
      "cas": 4600,
      "##ندي": 4601,
      "مره": 4602,
      "روحو": 4603,
      "lib": 4604,
      "##توا": 4605,
      "u200f": 4606,
      "##حس": 4607,
      "موس": 4608,
      "##قتل": 4609,
      "ابدا": 4610,
      "الوطني": 4611,
      "sar": 4612,
      "الموت": 4613,
      "عجب": 4614,
      "قلبك": 4615,
      "الصحة": 4616,
      "##همش": 4617,
      "##هاد": 4618,
      "يريد": 4619,
      "بارك": 4620,
      "##ايلة": 4621,
      "##ابقة": 4622,
      "##عات": 4623,
      "لص": 4624,
      "win": 4625,
      "العلي": 4626,
      "##فيد": 4627,
      "حر": 4628,
      "##able": 4629,
      "##جيب": 4630,
      "lyoum": 4631,
      "سنوات": 4632,
      "ins": 4633,
      "😭😭": 4634,
      "غالب": 4635,
      "##ell": 4636,
      "غلط": 4637,
      "zit": 4638,
      "ton": 4639,
      "عيني": 4640,
      "صايمه": 4641,
      "hay": 4642,
      "ويس": 4643,
      "جديدة": 4644,
      "##dar": 4645,
      "ضرب": 4646,
      "مرا": 4647,
      "دخلت": 4648,
      "##رفع": 4649,
      "جزايري": 4650,
      "fra": 4651,
      "jamais": 4652,
      "ag": 4653,
      "##فكر": 4654,
      "ذا": 4655,
      "غاية": 4656,
      "بابا": 4657,
      "سق": 4658,
      "لغ": 4659,
      "التاريخ": 4660,
      "gra": 4661,
      "cho": 4662,
      "##دد": 4663,
      "تقدر": 4664,
      "##الها": 4665,
      "ويت": 4666,
      "كام": 4667,
      "##😂😂😂😂😂😂😂😂": 4668,
      "فقد": 4669,
      "pt": 4670,
      "الكل": 4671,
      "2021": 4672,
      "##وسع": 4673,
      "his": 4674,
      "خاو": 4675,
      "##امه": 4676,
      "تدخل": 4677,
      "3lik": 4678,
      "from": 4679,
      "fl": 4680,
      "##dila": 4681,
      "معاها": 4682,
      "رك": 4683,
      "love": 4684,
      "kat": 4685,
      "اقت": 4686,
      "ومع": 4687,
      "اهم": 4688,
      "حسبي": 4689,
      "##شم": 4690,
      "##انيه": 4691,
      "تعالى": 4692,
      "##ضيع": 4693,
      "aime": 4694,
      "##اتب": 4695,
      "##zef": 4696,
      "##قيم": 4697,
      "الجميع": 4698,
      "بالح": 4699,
      "جز": 4700,
      "200": 4701,
      "##day": 4702,
      "##kon": 4703,
      "##ـــ": 4704,
      "عالم": 4705,
      "تعيش": 4706,
      "مسلسل": 4707,
      "مض": 4708,
      "قدامي": 4709,
      "خاطي": 4710,
      "حاس": 4711,
      "##دوة": 4712,
      "يحفظك": 4713,
      "##koun": 4714,
      "والن": 4715,
      "وجهك": 4716,
      "##وط": 4717,
      "##fhem": 4718,
      "id": 4719,
      "##دمة": 4720,
      "هما": 4721,
      "##جز": 4722,
      "##ran": 4723,
      "مجرد": 4724,
      "ach": 4725,
      "##ابه": 4726,
      "14": 4727,
      "هال": 4728,
      "يل": 4729,
      "لام": 4730,
      "لحد": 4731,
      "والد": 4732,
      "##قرا": 4733,
      "##جلس": 4734,
      "الوحيد": 4735,
      "one": 4736,
      "##لوس": 4737,
      "##ويا": 4738,
      "##روج": 4739,
      "وتح": 4740,
      "الحال": 4741,
      "ياو": 4742,
      "الليل": 4743,
      "##حتاجش": 4744,
      "##واصل": 4745,
      "هههههههه": 4746,
      "##lama": 4747,
      "النهار": 4748,
      "##هوة": 4749,
      "البق": 4750,
      "منذ": 4751,
      "##her": 4752,
      "bach": 4753,
      "يدخل": 4754,
      "tbahdila": 4755,
      "وليد": 4756,
      "يقولك": 4757,
      "da3": 4758,
      "##يادة": 4759,
      "الراي": 4760,
      "بسي": 4761,
      "faut": 4762,
      "manek": 4763,
      "임영웅": 4764,
      "##issa": 4765,
      "apres": 4766,
      "هه": 4767,
      "##یم": 4768,
      "##وخ": 4769,
      "كلنا": 4770,
      "##ler": 4771,
      "quoi": 4772,
      "3and": 4773,
      "18": 4774,
      "التع": 4775,
      "صور": 4776,
      "بالق": 4777,
      "ama": 4778,
      "انته": 4779,
      "##رع": 4780,
      "امس": 4781,
      "##ence": 4782,
      "السل": 4783,
      "كده": 4784,
      "شه": 4785,
      "نه": 4786,
      "nik": 4787,
      "##راج": 4788,
      "قرار": 4789,
      "##ذة": 4790,
      "##ينه": 4791,
      "الزلابية": 4792,
      "##dy": 4793,
      "##てす": 4794,
      "خيرا": 4795,
      "ple": 4796,
      "السعودية": 4797,
      "كث": 4798,
      "الذباب": 4799,
      "لقيت": 4800,
      "##حتى": 4801,
      "حض": 4802,
      "امري": 4803,
      "##ظهر": 4804,
      "رزق": 4805,
      "يعيش": 4806,
      "المشكل": 4807,
      "##ction": 4808,
      "##حتك": 4809,
      "نن": 4810,
      "المف": 4811,
      "طبعا": 4812,
      "القد": 4813,
      "الوال": 4814,
      "مبارك": 4815,
      "merci": 4816,
      "ميت": 4817,
      "##زية": 4818,
      "##تكم": 4819,
      "ib": 4820,
      "قعد": 4821,
      "3likom": 4822,
      "طلب": 4823,
      "الموضوع": 4824,
      "##ايمة": 4825,
      "##eni": 4826,
      "طا": 4827,
      "9ar": 4828,
      "ياب": 4829,
      "##زان": 4830,
      "##سبوك": 4831,
      "عص": 4832,
      "##والله": 4833,
      "عارف": 4834,
      "ret": 4835,
      "تحيا": 4836,
      "طرف": 4837,
      "يعلم": 4838,
      "yas": 4839,
      "pu": 4840,
      "##جن": 4841,
      "البلد": 4842,
      "تقولي": 4843,
      "##ww": 4844,
      "##طيح": 4845,
      "مكاش": 4846,
      "##koum": 4847,
      "تزيد": 4848,
      "العب": 4849,
      "##øu": 4850,
      "حفظ": 4851,
      "bad": 4852,
      "##يرا": 4853,
      "والب": 4854,
      "تاريخ": 4855,
      "حز": 4856,
      "خاطر": 4857,
      "##las": 4858,
      "##لكم": 4859,
      "اولا": 4860,
      "كا": 4861,
      "##ذك": 4862,
      "موت": 4863,
      "ساك": 4864,
      "زمان": 4865,
      "##اهر": 4866,
      "ps": 4867,
      "اور": 4868,
      "للب": 4869,
      "ada": 4870,
      "hhhhhhhhh": 4871,
      "##ناك": 4872,
      "مبار": 4873,
      "##ويه": 4874,
      "##وقع": 4875,
      "her": 4876,
      "##الق": 4877,
      "مليحة": 4878,
      "نتوما": 4879,
      "##way": 4880,
      "kleb": 4881,
      "ماتحتاجش": 4882,
      "اشت": 4883,
      "يقولو": 4884,
      "ڨاع": 4885,
      "##allah": 4886,
      "معك": 4887,
      "##اده": 4888,
      "بينا": 4889,
      "ارب": 4890,
      "##ولها": 4891,
      "bah": 4892,
      "وطن": 4893,
      "دعو": 4894,
      "dir": 4895,
      "##mar": 4896,
      "تاعو": 4897,
      "الاستاذ": 4898,
      "دروك": 4899,
      "##nes": 4900,
      "جال": 4901,
      "##غط": 4902,
      "سام": 4903,
      "فق": 4904,
      "تفهم": 4905,
      "المراة": 4906,
      "##eng": 4907,
      "برو": 4908,
      "جميل": 4909,
      "bal": 4910,
      "##لاع": 4911,
      "باينة": 4912,
      "تحكي": 4913,
      "ماك": 4914,
      "البر": 4915,
      "كانوا": 4916,
      "فس": 4917,
      "وصل": 4918,
      "لط": 4919,
      "بلاك": 4920,
      "##ابت": 4921,
      "new": 4922,
      "##قيقي": 4923,
      "bes": 4924,
      "sin": 4925,
      "dec": 4926,
      "##mil": 4927,
      "##نسى": 4928,
      "هاذا": 4929,
      "##ants": 4930,
      "والق": 4931,
      "فعل": 4932,
      "شيخ": 4933,
      "لاعب": 4934,
      "الرو": 4935,
      "هت": 4936,
      "##ld": 4937,
      "ماشاء": 4938,
      "ts": 4939,
      "##7t": 4940,
      "زواف": 4941,
      "##ph": 4942,
      "##واش": 4943,
      "##itu": 4944,
      "por": 4945,
      "##خت": 4946,
      "##ih": 4947,
      "##دخل": 4948,
      "##لون": 4949,
      "sm": 4950,
      "الرجل": 4951,
      "النار": 4952,
      "تبع": 4953,
      "##فار": 4954,
      "اصحاب": 4955,
      "cor": 4956,
      "nah": 4957,
      "سوال": 4958,
      "##لان": 4959,
      "out": 4960,
      "الدار": 4961,
      "##ويت": 4962,
      "##قيل": 4963,
      "zi": 4964,
      "##دينا": 4965,
      "##lem": 4966,
      "الحم": 4967,
      "##داد": 4968,
      "حتي": 4969,
      "##lim": 4970,
      "hom": 4971,
      "yo": 4972,
      "يديرو": 4973,
      "##lk": 4974,
      "يوفق": 4975,
      "ur": 4976,
      "##challah": 4977,
      "الاد": 4978,
      "dah": 4979,
      "##مك": 4980,
      "اجمل": 4981,
      "متقدرش": 4982,
      "تعبان": 4983,
      "صاحبي": 4984,
      "مالا": 4985,
      "##oua": 4986,
      "acc": 4987,
      "##ثي": 4988,
      "twe": 4989,
      "كاس": 4990,
      "صل": 4991,
      "ويح": 4992,
      "fat": 4993,
      "داخل": 4994,
      "الطريق": 4995,
      "nour": 4996,
      "العمل": 4997,
      "ويب": 4998,
      "sho": 4999,
      "dia": 5000,
      "##ابي": 5001,
      "اكل": 5002,
      "##iki": 5003,
      "9ah": 5004,
      "##md": 5005,
      "##ves": 5006,
      "باع": 5007,
      "العراق": 5008,
      "قداه": 5009,
      "mt": 5010,
      "kif": 5011,
      "edd": 5012,
      "مشكل": 5013,
      "pi": 5014,
      "يعت": 5015,
      "تنا": 5016,
      "تهدر": 5017,
      "صعب": 5018,
      "##جاح": 5019,
      "##شت": 5020,
      "bezzaf": 5021,
      "##ty": 5022,
      "ويا": 5023,
      "2020": 5024,
      "sadi": 5025,
      "ای": 5026,
      "ذكر": 5027,
      "مبروك": 5028,
      "ماهو": 5029,
      "##بعض": 5030,
      "16": 5031,
      "الدول": 5032,
      "ماذا": 5033,
      "rani": 5034,
      "##cr": 5035,
      "##ريف": 5036,
      "##bouk": 5037,
      "did": 5038,
      "يز": 5039,
      "##ente": 5040,
      "##iii": 5041,
      "##فليقة": 5042,
      "ياخي": 5043,
      "والص": 5044,
      "##zid": 5045,
      "عاج": 5046,
      "بيد": 5047,
      "##houm": 5048,
      "##lab": 5049,
      "تزوج": 5050,
      "mad": 5051,
      "hy": 5052,
      "سعيد": 5053,
      "will": 5054,
      "##وين": 5055,
      "##دام": 5056,
      "##rad": 5057,
      "etait": 5058,
      "##ليم": 5059,
      "##سات": 5060,
      "الكريم": 5061,
      "we7ed": 5062,
      "##led": 5063,
      "##خدم": 5064,
      "##ونك": 5065,
      "nch": 5066,
      "##لمي": 5067,
      "jou": 5068,
      "mel": 5069,
      "##يتش": 5070,
      "zouj": 5071,
      "##اسي": 5072,
      "تبقى": 5073,
      "اجعل": 5074,
      "خاطيني": 5075,
      "حبيبتي": 5076,
      "mb": 5077,
      "##ميلة": 5078,
      "المط": 5079,
      "يعطيك": 5080,
      "القب": 5081,
      "وشبيك": 5082,
      "##aka": 5083,
      "مريض": 5084,
      "بنفس": 5085,
      "##كنه": 5086,
      "##اطل": 5087,
      "##ـي": 5088,
      "imp": 5089,
      "ويجعل": 5090,
      "ارواح": 5091,
      "حيث": 5092,
      "da3ich": 5093,
      "باين": 5094,
      "##خط": 5095,
      "الباك": 5096,
      "##نن": 5097,
      "##cine": 5098,
      "محب": 5099,
      "الاحت": 5100,
      "kafer": 5101,
      "الحاج": 5102,
      "##روش": 5103,
      "sel": 5104,
      "حمد": 5105,
      "bezef": 5106,
      "##شق": 5107,
      "hbibna": 5108,
      "##حات": 5109,
      "nefhem": 5110,
      "zitout": 5111,
      "خب": 5112,
      "منكم": 5113,
      "ces": 5114,
      "تخدم": 5115,
      "تز": 5116,
      "##ازي": 5117,
      "قالها": 5118,
      "اصب": 5119,
      "tweet": 5120,
      "بالس": 5121,
      "##ny": 5122,
      "بلادنا": 5123,
      "fou": 5124,
      "جم": 5125,
      "اننا": 5126,
      "وتع": 5127,
      "##ord": 5128,
      "nad": 5129,
      "##💔💔": 5130,
      "##دون": 5131,
      "alors": 5132,
      "##ايح": 5133,
      "ik": 5134,
      "مخت": 5135,
      "##يام": 5136,
      "##hou": 5137,
      "##وذ": 5138,
      "محد": 5139,
      "رحمه": 5140,
      "##باء": 5141,
      "kr": 5142,
      "off": 5143,
      "dou": 5144,
      "ليست": 5145,
      "tres": 5146,
      "##mir": 5147,
      "3at": 5148,
      "##قطة": 5149,
      "##فاء": 5150,
      "بري": 5151,
      "الخاص": 5152,
      "خدمة": 5153,
      "##😅😅": 5154,
      "good": 5155,
      "raj": 5156,
      "الثاني": 5157,
      "هاي": 5158,
      "##uf": 5159,
      "العصابة": 5160,
      "yet": 5161,
      "التص": 5162,
      "جو": 5163,
      "sk": 5164,
      "كره": 5165,
      "##غرب": 5166,
      "##اشي": 5167,
      "حبيت": 5168,
      "علاب": 5169,
      "tb": 5170,
      "##ظي": 5171,
      "سيدنا": 5172,
      "hhh": 5173,
      "##ديل": 5174,
      "صورة": 5175,
      "عبر": 5176,
      "البيت": 5177,
      "hambouk": 5178,
      "##ارية": 5179,
      "لبلاد": 5180,
      "الحقيقة": 5181,
      "المه": 5182,
      "ديري": 5183,
      "7a": 5184,
      "ملك": 5185,
      "رياض": 5186,
      "##كرا": 5187,
      "وزير": 5188,
      "زعمة": 5189,
      "وعد": 5190,
      "##nd": 5191,
      "بالف": 5192,
      "خبر": 5193,
      "ومت": 5194,
      "##فيه": 5195,
      "متو": 5196,
      "tar": 5197,
      "##aaa": 5198,
      "يفرج": 5199,
      "قناة": 5200,
      "az": 5201,
      "حيا": 5202,
      "fer": 5203,
      "sc": 5204,
      "##حدة": 5205,
      "ليوم": 5206,
      "اولاد": 5207,
      "met": 5208,
      "جه": 5209,
      "خس": 5210,
      "##رفة": 5211,
      "اليك": 5212,
      "##ريقيا": 5213,
      "الرحمان": 5214,
      "فن": 5215,
      "اقل": 5216,
      "##جاب": 5217,
      "لقد": 5218,
      "##نيه": 5219,
      "معانا": 5220,
      "كتب": 5221,
      "##tou": 5222,
      "##ظن": 5223,
      "twi": 5224,
      "##امر": 5225,
      "لانو": 5226,
      "الاقل": 5227,
      "##iment": 5228,
      "ala": 5229,
      "فريق": 5230,
      "تاعي": 5231,
      "khali": 5232,
      "##ない": 5233,
      "كلهم": 5234,
      "##یر": 5235,
      "فالم": 5236,
      "lk": 5237,
      "وحده": 5238,
      "لاح": 5239,
      "##بلغ": 5240,
      "معليش": 5241,
      "نقرا": 5242,
      "vrai": 5243,
      "sadi9i": 5244,
      "رحمة": 5245,
      "فلي": 5246,
      "القواد": 5247,
      "سال": 5248,
      "##فن": 5249,
      "gi": 5250,
      "باقي": 5251,
      "يطلع": 5252,
      "صب": 5253,
      "##ديا": 5254,
      "bay": 5255,
      "u200d♂": 5256,
      "ماكان": 5257,
      "این": 5258,
      "##gg": 5259,
      "kayn": 5260,
      "ans": 5261,
      "##esh": 5262,
      "##اااااااا": 5263,
      "##eda": 5264,
      "gens": 5265,
      "##لوش": 5266,
      "اساس": 5267,
      "##صور": 5268,
      "واست": 5269,
      "pol": 5270,
      "cla": 5271,
      "kad": 5272,
      "##امت": 5273,
      "الجامعة": 5274,
      "طالب": 5275,
      "##ولهم": 5276,
      "##اوز": 5277,
      "الكثير": 5278,
      "##tif": 5279,
      "fiha": 5280,
      "ge": 5281,
      "##لوه": 5282,
      "##hak": 5283,
      "##ema": 5284,
      "##صبر": 5285,
      "يتم": 5286,
      "ban": 5287,
      "يوجد": 5288,
      "كتير": 5289,
      "um": 5290,
      "play": 5291,
      "##عام": 5292,
      "الملك": 5293,
      "##غر": 5294,
      "زين": 5295,
      "وزيد": 5296,
      "ever": 5297,
      "الهم": 5298,
      "المم": 5299,
      "العق": 5300,
      "ليلة": 5301,
      "رحت": 5302,
      "##って": 5303,
      "يخلي": 5304,
      "يهديك": 5305,
      "wach": 5306,
      "الزلابيه": 5307,
      "9ahba": 5308,
      "جن": 5309,
      "صحيتو": 5310,
      "get": 5311,
      "والك": 5312,
      "##روط": 5313,
      "wala": 5314,
      "دنيا": 5315,
      "cu": 5316,
      "عدم": 5317,
      "يرحمه": 5318,
      "##ومون": 5319,
      "وض": 5320,
      "##نف": 5321,
      "اللى": 5322,
      "って": 5323,
      "##لامة": 5324,
      "##دافع": 5325,
      "زهرك": 5326,
      "##اث": 5327,
      "جمال": 5328,
      "##gha": 5329,
      "##edd": 5330,
      "علاقة": 5331,
      "داك": 5332,
      "ماما": 5333,
      "who": 5334,
      "##جار": 5335,
      "lb": 5336,
      "aya": 5337,
      "yang": 5338,
      "##لبس": 5339,
      "now": 5340,
      "pra": 5341,
      "جاء": 5342,
      "##يدا": 5343,
      "lol": 5344,
      "##ayi": 5345,
      "خرجت": 5346,
      "monde": 5347,
      "bab": 5348,
      "##ison": 5349,
      "mech": 5350,
      "بوتفليقة": 5351,
      "mdrr": 5352,
      "اجمع": 5353,
      "ahmed": 5354,
      "وعند": 5355,
      "دج": 5356,
      "يعطي": 5357,
      "##ond": 5358,
      "نكون": 5359,
      "vu": 5360,
      "3am": 5361,
      "##طية": 5362,
      "حش": 5363,
      "صغيرة": 5364,
      "عدد": 5365,
      "كش": 5366,
      "##الحمد": 5367,
      "##راض": 5368,
      "##aki": 5369,
      "bella": 5370,
      "##قسي": 5371,
      "time": 5372,
      "##لاك": 5373,
      "قاعد": 5374,
      "mem": 5375,
      "##ars": 5376,
      "fik": 5377,
      "خلال": 5378,
      "lebes": 5379,
      "##كتور": 5380,
      "للك": 5381,
      "كثيرا": 5382,
      "ماني": 5383,
      "##ورد": 5384,
      "##pt": 5385,
      "3atay": 5386,
      "ns": 5387,
      "الحمدلله": 5388,
      "dem": 5389,
      "الرياض": 5390,
      "##od": 5391,
      "fil": 5392,
      "القدم": 5393,
      "13": 5394,
      "##hm": 5395,
      "mor": 5396,
      "فش": 5397,
      "tt": 5398,
      "pho": 5399,
      "وو": 5400,
      "aa": 5401,
      "حسبنا": 5402,
      "17": 5403,
      "بـ": 5404,
      "للي": 5405,
      "##توفيق": 5406,
      "##cef": 5407,
      "grand": 5408,
      "##فير": 5409,
      "معه": 5410,
      "حسن": 5411,
      "##امين": 5412,
      "فخ": 5413,
      "##مهور": 5414,
      "تسم": 5415,
      "الجمعة": 5416,
      "الجم": 5417,
      "##فينك": 5418,
      "ومش": 5419,
      "##ومن": 5420,
      "##حى": 5421,
      "##った": 5422,
      "nass": 5423,
      "ولات": 5424,
      "##ange": 5425,
      "sim": 5426,
      "##خة": 5427,
      "افريقيا": 5428,
      "##بات": 5429,
      "##cial": 5430,
      "استغفر": 5431,
      "##غلط": 5432,
      "pou": 5433,
      "سوف": 5434,
      "حقوق": 5435,
      "##كيف": 5436,
      "t9": 5437,
      "واق": 5438,
      "الحكم": 5439,
      "##した": 5440,
      "فيديو": 5441,
      "النبي": 5442,
      "تحية": 5443,
      "الامور": 5444,
      "لاه": 5445,
      "##ياد": 5446,
      "فهو": 5447,
      "##ree": 5448,
      "واليوم": 5449,
      "يرجع": 5450,
      "اللسان": 5451,
      "يتع": 5452,
      "our": 5453,
      "nak": 5454,
      "عندكم": 5455,
      "##ارس": 5456,
      "peuple": 5457,
      "طبي": 5458,
      "انق": 5459,
      "الجزايريين": 5460,
      "ele": 5461,
      "##hah": 5462,
      "الاخير": 5463,
      "##حلة": 5464,
      "mr": 5465,
      "تان": 5466,
      "ima": 5467,
      "mom": 5468,
      "احترام": 5469,
      "##nee": 5470,
      "ses": 5471,
      "tes": 5472,
      "##ante": 5473,
      "##قية": 5474,
      "خاطفينك": 5475,
      "هوا": 5476,
      "fran": 5477,
      "##افظ": 5478,
      "تض": 5479,
      "سورة": 5480,
      "يشافي": 5481,
      "هدي": 5482,
      "##كري": 5483,
      "قلي": 5484,
      "kel": 5485,
      "حياة": 5486,
      "##دوا": 5487,
      "صلاة": 5488,
      "توفيق": 5489,
      "ph": 5490,
      "الحي": 5491,
      "##ase": 5492,
      "سير": 5493,
      "##ind": 5494,
      "##cher": 5495,
      "op": 5496,
      "##خذ": 5497,
      "شغ": 5498,
      "المال": 5499,
      "قري": 5500,
      "اخذ": 5501,
      "##ieux": 5502,
      "##فاق": 5503,
      "الاغ": 5504,
      "##يير": 5505,
      "nhabkom": 5506,
      "ماعند": 5507,
      "best": 5508,
      "السنة": 5509,
      "twa": 5510,
      "وليت": 5511,
      "##eur": 5512,
      "##فعل": 5513,
      "##🙄🙄": 5514,
      "##ika": 5515,
      "##طين": 5516,
      "pays": 5517,
      "##حياتي": 5518,
      "##vid": 5519,
      "ابناء": 5520,
      "##ui": 5521,
      "لين": 5522,
      "العاصمة": 5523,
      "fois": 5524,
      "جمع": 5525,
      "يعمل": 5526,
      "ji": 5527,
      "##جرة": 5528,
      "##ner": 5529,
      "sans": 5530,
      "ob": 5531,
      "ودي": 5532,
      "اعد": 5533,
      "وجود": 5534,
      "تقرا": 5535,
      "ثلاث": 5536,
      "##😘😘": 5537,
      "22": 5538,
      "tab": 5539,
      "##ents": 5540,
      "cl": 5541,
      "يضحك": 5542,
      "##😢😢": 5543,
      "رايح": 5544,
      "##رضى": 5545,
      "الصفحة": 5546,
      "اون": 5547,
      "beau": 5548,
      "قولي": 5549,
      "dzayer": 5550,
      "والج": 5551,
      "اوي": 5552,
      "نلق": 5553,
      "she": 5554,
      "##فال": 5555,
      "##ارض": 5556,
      "##ولد": 5557,
      "nhar": 5558,
      "ادم": 5559,
      "##كار": 5560,
      "ملاح": 5561,
      "said": 5562,
      "some": 5563,
      "ss": 5564,
      "الراب": 5565,
      "##qui": 5566,
      "leur": 5567,
      "norm": 5568,
      "الباب": 5569,
      "عباد": 5570,
      "كلي": 5571,
      "##fou": 5572,
      "##كرم": 5573,
      "بالش": 5574,
      "##كرة": 5575,
      "يرحمهم": 5576,
      "wat": 5577,
      "eddine": 5578,
      "طفلة": 5579,
      "يلي": 5580,
      "##روس": 5581,
      "نوع": 5582,
      "##عود": 5583,
      "vot": 5584,
      "صحب": 5585,
      "ياكل": 5586,
      "rem": 5587,
      "كرة": 5588,
      "sor": 5589,
      "واللي": 5590,
      "##reb": 5591,
      "25": 5592,
      "الاك": 5593,
      "قدم": 5594,
      "ادا": 5595,
      "##وفي": 5596,
      "##طاء": 5597,
      "##حنا": 5598,
      "how": 5599,
      "dra": 5600,
      "ترى": 5601,
      "التس": 5602,
      "kab": 5603,
      "##🏻♀": 5604,
      "juste": 5605,
      "##uh": 5606,
      "معند": 5607,
      "يستر": 5608,
      "##🤔🤔": 5609,
      "##ghi": 5610,
      "اهله": 5611,
      "الدرا": 5612,
      "cher": 5613,
      "عايشين": 5614,
      "yerhem": 5615,
      "يحكم": 5616,
      "علشان": 5617,
      "bonne": 5618,
      "اتمنى": 5619,
      "ذاك": 5620,
      "واي": 5621,
      "cro": 5622,
      "nes": 5623,
      "طال": 5624,
      "بشكل": 5625,
      "والف": 5626,
      "del": 5627,
      "جناته": 5628,
      "البع": 5629,
      "bt": 5630,
      "##عان": 5631,
      "##ouma": 5632,
      "تلك": 5633,
      "##ديها": 5634,
      "##min": 5635,
      "##اسم": 5636,
      "موجود": 5637,
      "فكر": 5638,
      "parti": 5639,
      "راسي": 5640,
      "كر": 5641,
      "##طقة": 5642,
      "نبي": 5643,
      "dro": 5644,
      "الشهداء": 5645,
      "تجيب": 5646,
      "50": 5647,
      "السود": 5648,
      "مسابقة": 5649,
      "know": 5650,
      "##bat": 5651,
      "عج": 5652,
      "بعدها": 5653,
      "تبان": 5654,
      "توا": 5655,
      "##ques": 5656,
      "تحس": 5657,
      "الصباح": 5658,
      "9ar3a": 5659,
      "##ys": 5660,
      "رواح": 5661,
      "انش": 5662,
      "ولاية": 5663,
      "thank": 5664,
      "وقد": 5665,
      "تفرج": 5666,
      "##yo": 5667,
      "##から": 5668,
      "##fin": 5669,
      "واه": 5670,
      "eh": 5671,
      "##ارق": 5672,
      "للق": 5673,
      "##pr": 5674,
      "##٠٠": 5675,
      "##lic": 5676,
      "##اقي": 5677,
      "##عون": 5678,
      "الخط": 5679,
      "نسمع": 5680,
      "الفل": 5681,
      "##ايية": 5682,
      "غال": 5683,
      "##ult": 5684,
      "برحم": 5685,
      "part": 5686,
      "mdr": 5687,
      "المجتمع": 5688,
      "العسلوج": 5689,
      "ميسي": 5690,
      "اشوف": 5691,
      "##بيت": 5692,
      "وتو": 5693,
      "##tar": 5694,
      "##endre": 5695,
      "اغفر": 5696,
      "يلا": 5697,
      "الشباب": 5698,
      "تلقى": 5699,
      "about": 5700,
      "التج": 5701,
      "more": 5702,
      "slama": 5703,
      "قتل": 5704,
      "##جاز": 5705,
      "وضع": 5706,
      "سيدي": 5707,
      "yar": 5708,
      "مسلم": 5709,
      "twitter": 5710,
      "##جح": 5711,
      "يموت": 5712,
      "بيا": 5713,
      "قاد": 5714,
      "21": 5715,
      "##ano": 5716,
      "يهدر": 5717,
      "##ماج": 5718,
      "##ركات": 5719,
      "##هادة": 5720,
      "اكتر": 5721,
      "اسلام": 5722,
      "##ويس": 5723,
      "eli": 5724,
      "##ling": 5725,
      "الاخت": 5726,
      "الزواج": 5727,
      "pri": 5728,
      "##طه": 5729,
      "##اسب": 5730,
      "بالنسبة": 5731,
      "ava": 5732,
      "اسراي": 5733,
      "##الث": 5734,
      "الزين": 5735,
      "col": 5736,
      "nos": 5737,
      "واضح": 5738,
      "zeb": 5739,
      "سو": 5740,
      "##افه": 5741,
      "ارت": 5742,
      "الجديد": 5743,
      "عس": 5744,
      "عنها": 5745,
      "##نامج": 5746,
      "bro": 5747,
      "النها": 5748,
      "يبدا": 5749,
      "درك": 5750,
      "صفحة": 5751,
      "نغ": 5752,
      "منين": 5753,
      "وحنا": 5754,
      "اللق": 5755,
      "امريكا": 5756,
      "وغير": 5757,
      "##دوش": 5758,
      "##ابا": 5759,
      "##فات": 5760,
      "الماء": 5761,
      "احم": 5762,
      "طريقة": 5763,
      "prof": 5764,
      "مستوى": 5765,
      "فكرة": 5766,
      "يولي": 5767,
      "##ule": 5768,
      "منشور": 5769,
      "كدا": 5770,
      "تغير": 5771,
      "المنتخب": 5772,
      "ini": 5773,
      "##حية": 5774,
      "wi": 5775,
      "فرق": 5776,
      "passe": 5777,
      "القايد": 5778,
      "دق": 5779,
      "##عك": 5780,
      "❤❤": 5781,
      "كمان": 5782,
      "ci": 5783,
      "##asa": 5784,
      "خلص": 5785,
      "deja": 5786,
      "ذي": 5787,
      "بلادي": 5788,
      "lam": 5789,
      "##lad": 5790,
      "تقبل": 5791,
      "##ورك": 5792,
      "##نيش": 5793,
      "نظام": 5794,
      "galouli": 5795,
      "##عمال": 5796,
      "hbibi": 5797,
      "ولن": 5798,
      "##cou": 5799,
      "ويغفر": 5800,
      "والسلام": 5801,
      "##وول": 5802,
      "الحس": 5803,
      "بلاص": 5804,
      "وانتم": 5805,
      "العمر": 5806,
      "kon": 5807,
      "تاخ": 5808,
      "##حترم": 5809,
      "حص": 5810,
      "mab": 5811,
      "لحم": 5812,
      "cer": 5813,
      "النساء": 5814,
      "24": 5815,
      "lar": 5816,
      "النفس": 5817,
      "##حكم": 5818,
      "والحمد": 5819,
      "##hhhhhhhhhhhhhhhh": 5820,
      "ila": 5821,
      "##بره": 5822,
      "##ibi": 5823,
      "تلعب": 5824,
      "لانك": 5825,
      "بز": 5826,
      "شد": 5827,
      "##فضل": 5828,
      "fih": 5829,
      "##الهم": 5830,
      "عمرك": 5831,
      "##فاي": 5832,
      "##abi": 5833,
      "##ضب": 5834,
      "bat": 5835,
      "الفاي": 5836,
      "لهذا": 5837,
      "##wal": 5838,
      "عربي": 5839,
      "##cc": 5840,
      "##انب": 5841,
      "live": 5842,
      "##حبه": 5843,
      "محتاج": 5844,
      "##لمك": 5845,
      "##bb": 5846,
      "##سيل": 5847,
      "القر": 5848,
      "شنو": 5849,
      "غادي": 5850,
      "##enn": 5851,
      "##ميم": 5852,
      "##jou": 5853,
      "فاش": 5854,
      "ناق": 5855,
      "##هيم": 5856,
      "##homch": 5857,
      "##ando": 5858,
      "fu": 5859,
      "9al": 5860,
      "##غان": 5861,
      "والخ": 5862,
      "المر": 5863,
      "مور": 5864,
      "ارج": 5865,
      "##حان": 5866,
      "##ges": 5867,
      "كلا": 5868,
      "نر": 5869,
      "##bre": 5870,
      "عنك": 5871,
      "يوما": 5872,
      "##تحان": 5873,
      "bsah": 5874,
      "notre": 5875,
      "نعمة": 5876,
      "فما": 5877,
      "##pat": 5878,
      "##tta": 5879,
      "خطرة": 5880,
      "##حاد": 5881,
      "هادا": 5882,
      "بالي": 5883,
      "يصبر": 5884,
      "jus": 5885,
      "##عادة": 5886,
      "##فرق": 5887,
      "وث": 5888,
      "ft": 5889,
      "quel": 5890,
      "##mia": 5891,
      "دزاير": 5892,
      "donc": 5893,
      "##عوب": 5894,
      "##oll": 5895,
      "لكان": 5896,
      "##ميز": 5897,
      "يام": 5898,
      "اصبحت": 5899,
      "معا": 5900,
      "##ركي": 5901,
      "dev": 5902,
      "كتاب": 5903,
      "##mad": 5904,
      "sen": 5905,
      "تاعنا": 5906,
      "happ": 5907,
      "##ero": 5908,
      "انفس": 5909,
      "موض": 5910,
      "رقم": 5911,
      "##🥺🥺": 5912,
      "wahed": 5913,
      "صع": 5914,
      "ياح": 5915,
      "##ın": 5916,
      "##عا": 5917,
      "##قاد": 5918,
      "ممن": 5919,
      "يجعل": 5920,
      "40": 5921,
      "نسي": 5922,
      "##حط": 5923,
      "المتو": 5924,
      "##ابلة": 5925,
      "##تيه": 5926,
      "الساعة": 5927,
      "القانون": 5928,
      "لينا": 5929,
      "تويتر": 5930,
      "##ires": 5931,
      "##بيق": 5932,
      "الجديدة": 5933,
      "##bal": 5934,
      "وسط": 5935,
      "##عندي": 5936,
      "##ثه": 5937,
      "القي": 5938,
      "مشروع": 5939,
      "تتكلم": 5940,
      "الانتخابات": 5941,
      "when": 5942,
      "قيم": 5943,
      "normal": 5944,
      "##راءة": 5945,
      "##lie": 5946,
      "vraiment": 5947,
      "##يرات": 5948,
      "##توش": 5949,
      "قانون": 5950,
      "##بق": 5951,
      "نصي": 5952,
      "##lu": 5953,
      "##لمات": 5954,
      "##nn": 5955,
      "كبر": 5956,
      "السوال": 5957,
      "##تلي": 5958,
      "##hor": 5959,
      "##حبا": 5960,
      "##core": 5961,
      "رم": 5962,
      "الفيديو": 5963,
      "him": 5964,
      "##hd": 5965,
      "niche": 5966,
      "تونس": 5967,
      "##افر": 5968,
      "nie": 5969,
      "يهم": 5970,
      "الدع": 5971,
      "peter": 5972,
      "للو": 5973,
      "00": 5974,
      "بات": 5975,
      "##😒😒": 5976,
      "nao": 5977,
      "##هدرو": 5978,
      "##مام": 5979,
      "##ناي": 5980,
      "اجمعين": 5981,
      "##واك": 5982,
      "وبين": 5983,
      "##zo": 5984,
      "السياسة": 5985,
      "##ible": 5986,
      "يخلص": 5987,
      "howa": 5988,
      "##ress": 5989,
      "##وح": 5990,
      "##lik": 5991,
      "##شى": 5992,
      "جاو": 5993,
      "##انو": 5994,
      "##ناق": 5995,
      "اجر": 5996,
      "##ديمة": 5997,
      "كال": 5998,
      "##هاها": 5999,
      "die": 6000,
      "##iens": 6001,
      "عطاي": 6002,
      "##mer": 6003,
      "nd": 6004,
      "##نق": 6005,
      "لانها": 6006,
      "برش": 6007,
      "الفريق": 6008,
      "ثق": 6009,
      "any": 6010,
      "##حيا": 6011,
      "خمس": 6012,
      "##فهمتش": 6013,
      "عرفت": 6014,
      "سك": 6015,
      "الكبير": 6016,
      "##eh": 6017,
      "##7ch": 6018,
      "##ونها": 6019,
      "السر": 6020,
      "##اطر": 6021,
      "##عرفش": 6022,
      "وقال": 6023,
      "exp": 6024,
      "bir": 6025,
      "contre": 6026,
      "هذو": 6027,
      "جع": 6028,
      "حرف": 6029,
      "جما": 6030,
      "##isi": 6031,
      "mli": 6032,
      "yes": 6033,
      "القط": 6034,
      "post": 6035,
      "كلامك": 6036,
      "##بيض": 6037,
      "قيمة": 6038,
      "ghi": 6039,
      "tan": 6040,
      "ونحن": 6041,
      "الحر": 6042,
      "احلى": 6043,
      "##وايج": 6044,
      "اهلها": 6045,
      "hel": 6046,
      "##ref": 6047,
      "##ino": 6048,
      "ترجع": 6049,
      "خلو": 6050,
      "##ua": 6051,
      "امن": 6052,
      "ya3": 6053,
      "صبر": 6054,
      "##شه": 6055,
      "شيي": 6056,
      "compr": 6057,
      "عيش": 6058,
      "ويقول": 6059,
      "غدوة": 6060,
      "معنى": 6061,
      "##طلع": 6062,
      "##اعدة": 6063,
      "lou": 6064,
      "فطورك": 6065,
      "يرد": 6066,
      "البحر": 6067,
      "تسمع": 6068,
      "الشه": 6069,
      "##ake": 6070,
      "##قلي": 6071,
      "وصلت": 6072,
      "##راع": 6073,
      "##ادية": 6074,
      "وسي": 6075,
      "##vent": 6076,
      "ليها": 6077,
      "😂😂😂😂😂😂😂": 6078,
      "يطلق": 6079,
      "##كى": 6080,
      "قام": 6081,
      "وذ": 6082,
      "قليل": 6083,
      "##سيا": 6084,
      "##المو": 6085,
      "##🤣🤣🤣": 6086,
      "parle": 6087,
      "المصري": 6088,
      "حا": 6089,
      "dial": 6090,
      "aux": 6091,
      "##عع": 6092,
      "الحكومة": 6093,
      "##زز": 6094,
      "##gal": 6095,
      "##تيش": 6096,
      "##ition": 6097,
      "بدل": 6098,
      "المواطن": 6099,
      "حبيبي": 6100,
      "ndir": 6101,
      "الاز": 6102,
      "ir": 6103,
      "##ريمة": 6104,
      "tay": 6105,
      "##الكم": 6106,
      "hon": 6107,
      "لكي": 6108,
      "##اطة": 6109,
      "تاكل": 6110,
      "مساء": 6111,
      "m3ak": 6112,
      "العين": 6113,
      "fais": 6114,
      "ويش": 6115,
      "##جات": 6116,
      "نجيب": 6117,
      "تعليق": 6118,
      "cal": 6119,
      "##55": 6120,
      "##ستي": 6121,
      "##ml": 6122,
      "##اجي": 6123,
      "##طوط": 6124,
      "##wayj": 6125,
      "bil": 6126,
      "🤣🤣🤣🤣": 6127,
      "##vre": 6128,
      "السبب": 6129,
      "chou": 6130,
      "t3ayi": 6131,
      "ba3": 6132,
      "کی": 6133,
      "##ffff": 6134,
      "##my": 6135,
      "ليل": 6136,
      "دارو": 6137,
      "يتكلم": 6138,
      "tel": 6139,
      "##ssama": 6140,
      "##bab": 6141,
      "##ای": 6142,
      "بحب": 6143,
      "##فرة": 6144,
      "##عاد": 6145,
      "##99": 6146,
      "ماتت": 6147,
      "عرض": 6148,
      "l9ito": 6149,
      "الهدرة": 6150,
      "##ركز": 6151,
      "france": 6152,
      "مرات": 6153,
      "y3": 6154,
      "نسيت": 6155,
      "هولاء": 6156,
      "##بارة": 6157,
      "##oc": 6158,
      "ty": 6159,
      "النوم": 6160,
      "##rahim": 6161,
      "##ker": 6162,
      "الاو": 6163,
      "##ines": 6164,
      "والسلو": 6165,
      "##gne": 6166,
      "سطيف": 6167,
      "قض": 6168,
      "##يره": 6169,
      "##anger": 6170,
      "mim": 6171,
      "##حيم": 6172,
      "##ado": 6173,
      "شا": 6174,
      "باك": 6175,
      "يتبع": 6176,
      "##عيم": 6177,
      "fem": 6178,
      "ماتش": 6179,
      "peut": 6180,
      "##ساد": 6181,
      "تقد": 6182,
      "امث": 6183,
      "##احة": 6184,
      "المب": 6185,
      "الفق": 6186,
      "##did": 6187,
      "##حث": 6188,
      "المي": 6189,
      "ويد": 6190,
      "ايش": 6191,
      "##لطان": 6192,
      "ker": 6193,
      "طلعت": 6194,
      "sara": 6195,
      "tk": 6196,
      "الحين": 6197,
      "##ras": 6198,
      "الحد": 6199,
      "الصورة": 6200,
      "تركيا": 6201,
      "بنادم": 6202,
      "العيد": 6203,
      "gre": 6204,
      "الاعلام": 6205,
      "hhhhhh": 6206,
      "واص": 6207,
      "طوي": 6208,
      "##سكر": 6209,
      "##ba7": 6210,
      "اغلب": 6211,
      "رش": 6212,
      "تدير": 6213,
      "##ياس": 6214,
      "جميعا": 6215,
      "سهي": 6216,
      "khou": 6217,
      "والسلوان": 6218,
      "معي": 6219,
      "حسين": 6220,
      "الواقع": 6221,
      "bet": 6222,
      "نوض": 6223,
      "عمرو": 6224,
      "##اكن": 6225,
      "pub": 6226,
      "##اتكم": 6227,
      "وخلاص": 6228,
      "قتلو": 6229,
      "n3": 6230,
      "الاجتما": 6231,
      "اسراييل": 6232,
      "votre": 6233,
      "ايها": 6234,
      "الكلمة": 6235,
      "اعوذ": 6236,
      "face": 6237,
      "بالص": 6238,
      "##لن": 6239,
      "fra7t": 6240,
      "##uit": 6241,
      "للد": 6242,
      "every": 6243,
      "ten": 6244,
      "فقال": 6245,
      "reb": 6246,
      "##خس": 6247,
      "##ربت": 6248,
      "واد": 6249,
      "##❤❤❤❤": 6250,
      "##ابعة": 6251,
      "gro": 6252,
      "personne": 6253,
      "تريد": 6254,
      "##ونسي": 6255,
      "mani": 6256,
      "##لاي": 6257,
      "inc": 6258,
      "فتح": 6259,
      "ياع": 6260,
      "##ورت": 6261,
      "موضوع": 6262,
      "##صاص": 6263,
      "##fik": 6264,
      "القاد": 6265,
      "كو": 6266,
      "##ori": 6267,
      "##lay": 6268,
      "شويا": 6269,
      "##ends": 6270,
      "##ارت": 6271,
      "##💜💜": 6272,
      "##ومه": 6273,
      "الجن": 6274,
      "sek": 6275,
      "تنس": 6276,
      "##rage": 6277,
      "u2066❤": 6278,
      "الزوج": 6279,
      "voi": 6280,
      "مما": 6281,
      "##حبة": 6282,
      "نزيد": 6283,
      "##قق": 6284,
      "##mane": 6285,
      "##ople": 6286,
      "##جو": 6287,
      "الحلو": 6288,
      "##isse": 6289,
      "والان": 6290,
      "مظ": 6291,
      "##رشح": 6292,
      "##ربو": 6293,
      "##ther": 6294,
      "ترام": 6295,
      "رايحة": 6296,
      "##خاف": 6297,
      "التف": 6298,
      "البنات": 6299,
      "##واع": 6300,
      "قصة": 6301,
      "##ههههه": 6302,
      "الرد": 6303,
      "المسل": 6304,
      "حقي": 6305,
      "اخلاق": 6306,
      "رايك": 6307,
      "7wayj": 6308,
      "اللاعب": 6309,
      "المنشور": 6310,
      "nan": 6311,
      "##tha": 6312,
      "راها": 6313,
      "##ريبا": 6314,
      "##ثبت": 6315,
      "##ماضي": 6316,
      "meri": 6317,
      "wela": 6318,
      "شعور": 6319,
      "##oh": 6320,
      "a3": 6321,
      "يكن": 6322,
      "انتو": 6323,
      "اللغة": 6324,
      "people": 6325,
      "##بيد": 6326,
      "##nal": 6327,
      "##tkom": 6328,
      "الدي": 6329,
      "التمني": 6330,
      "##lia": 6331,
      "super": 6332,
      "صر": 6333,
      "##رحمة": 6334,
      "##vers": 6335,
      "zel": 6336,
      "##بان": 6337,
      "##فوا": 6338,
      "معنا": 6339,
      "الفرق": 6340,
      "الوضع": 6341,
      "فم": 6342,
      "دك": 6343,
      "##سلام": 6344,
      "بقي": 6345,
      "تلف": 6346,
      "##ार": 6347,
      "ete": 6348,
      "##ابق": 6349,
      "famil": 6350,
      "جيش": 6351,
      "خاوتي": 6352,
      "اراد": 6353,
      "tha": 6354,
      "باباك": 6355,
      "n7": 6356,
      "تكسر": 6357,
      "الحرية": 6358,
      "حدث": 6359,
      "encore": 6360,
      "##لته": 6361,
      "##oot": 6362,
      "الامام": 6363,
      "##اربة": 6364,
      "هادو": 6365,
      "##شن": 6366,
      "شوفي": 6367,
      "يسمع": 6368,
      "يحفض": 6369,
      "لدار": 6370,
      "واك": 6371,
      "😍😍": 6372,
      "them": 6373,
      "تمشي": 6374,
      "زواج": 6375,
      "الوطنية": 6376,
      "##وسف": 6377,
      "اسمه": 6378,
      "يضرب": 6379,
      "##تل": 6380,
      "الرق": 6381,
      "مدير": 6382,
      "يض": 6383,
      "##امح": 6384,
      "##هام": 6385,
      "حرب": 6386,
      "قضية": 6387,
      "الخب": 6388,
      "red": 6389,
      "##mis": 6390,
      "##مون": 6391,
      "##زاد": 6392,
      "##عمر": 6393,
      "##rin": 6394,
      "عشر": 6395,
      "سه": 6396,
      "##ستان": 6397,
      "صلي": 6398,
      "arre": 6399,
      "اللح": 6400,
      "real": 6401,
      "net": 6402,
      "##bek": 6403,
      "##جبني": 6404,
      "##رتش": 6405,
      "ale": 6406,
      "كمل": 6407,
      "كنزة": 6408,
      "وراء": 6409,
      "بدات": 6410,
      "##fs": 6411,
      "mahomch": 6412,
      "dyal": 6413,
      "دعم": 6414,
      "iss": 6415,
      "##ثق": 6416,
      "نض": 6417,
      "##ﷺﷺﷺﷺ": 6418,
      "##ely": 6419,
      "##وبا": 6420,
      "##شد": 6421,
      "##شرة": 6422,
      "back": 6423,
      "spe": 6424,
      "##car": 6425,
      "##edna": 6426,
      "##tir": 6427,
      "قاتلي": 6428,
      "##vie": 6429,
      "##ريس": 6430,
      "##jours": 6431,
      "##اكد": 6432,
      "##😑😑": 6433,
      "متى": 6434,
      "##ايك": 6435,
      "تعت": 6436,
      "dak": 6437,
      "ونا": 6438,
      "sad": 6439,
      "امور": 6440,
      "المبار": 6441,
      "##تس": 6442,
      "##zou": 6443,
      "bł": 6444,
      "البعض": 6445,
      "dja": 6446,
      "rasna": 6447,
      "js": 6448,
      "##تلك": 6449,
      "trou": 6450,
      "نفهم": 6451,
      "##یت": 6452,
      "##امعة": 6453,
      "##gra": 6454,
      "##ذل": 6455,
      "##amel": 6456,
      "meille": 6457,
      "شرف": 6458,
      "توحش": 6459,
      "##عار": 6460,
      "##mine": 6461,
      "الصالح": 6462,
      "الملا": 6463,
      "##ايات": 6464,
      "التط": 6465,
      "##وسو": 6466,
      "3ay": 6467,
      "ساه": 6468,
      "امل": 6469,
      "لبنات": 6470,
      "mere": 6471,
      "##oni": 6472,
      "##لوق": 6473,
      "تحط": 6474,
      "بود": 6475,
      "تاج": 6476,
      "ضع": 6477,
      "الاسب": 6478,
      "معت": 6479,
      "الكت": 6480,
      "الحقيقي": 6481,
      "فطوركم": 6482,
      "sat": 6483,
      "دقيقة": 6484,
      "##fr": 6485,
      "امك": 6486,
      "قلوبنا": 6487,
      "الخلي": 6488,
      "تدي": 6489,
      "##كنت": 6490,
      "وها": 6491,
      "proble": 6492,
      "##une": 6493,
      "##عبة": 6494,
      "هداك": 6495,
      "dor": 6496,
      "##جيش": 6497,
      "##مير": 6498,
      "##برد": 6499,
      "think": 6500,
      "بهذا": 6501,
      "تكلم": 6502,
      "هذيك": 6503,
      "som": 6504,
      "##ount": 6505,
      "حتا": 6506,
      "##حمي": 6507,
      "##ach": 6508,
      "laz": 6509,
      "##tions": 6510,
      "جدي": 6511,
      "زمن": 6512,
      "عاود": 6513,
      "تتو": 6514,
      "الحلال": 6515,
      "نقولو": 6516,
      "##صاد": 6517,
      "##ليون": 6518,
      "##لكة": 6519,
      "bik": 6520,
      "##یں": 6521,
      "##سد": 6522,
      "تموت": 6523,
      "حبة": 6524,
      "المرة": 6525,
      "##اكسي": 6526,
      "##ちゃ": 6527,
      "ep": 6528,
      "##ريدة": 6529,
      "##كور": 6530,
      "ربما": 6531,
      "pense": 6532,
      "فين": 6533,
      "مقد": 6534,
      "النصر": 6535,
      "sir": 6536,
      "التعب": 6537,
      "البط": 6538,
      "##ory": 6539,
      "##اقة": 6540,
      "مبعد": 6541,
      "##عند": 6542,
      "##ouch": 6543,
      "التمنييك": 6544,
      "شم": 6545,
      "فج": 6546,
      "المك": 6547,
      "الطلبة": 6548,
      "مثواه": 6549,
      "ايران": 6550,
      "تخل": 6551,
      "##yom": 6552,
      "haja": 6553,
      "##الحة": 6554,
      "##جعلها": 6555,
      "خلف": 6556,
      "كبار": 6557,
      "miss": 6558,
      "شري": 6559,
      "##eeee": 6560,
      "نخرج": 6561,
      "##صص": 6562,
      "cour": 6563,
      "وتق": 6564,
      "انما": 6565,
      "😁😁": 6566,
      "مستحيل": 6567,
      "يقرا": 6568,
      "شخصية": 6569,
      "mk": 6570,
      "ياربي": 6571,
      "مالي": 6572,
      "كلشي": 6573,
      "بداية": 6574,
      "والاخ": 6575,
      "بالج": 6576,
      "يتو": 6577,
      "##11": 6578,
      "نقص": 6579,
      "##elo": 6580,
      "😂😂😂😂😂😂": 6581,
      "sama": 6582,
      "23": 6583,
      "تضحك": 6584,
      "ههههههههههههههههههههههههههههههههه": 6585,
      "##عنا": 6586,
      "##lan": 6587,
      "سوريا": 6588,
      "الحلقة": 6589,
      "الاهلي": 6590,
      "cham": 6591,
      "sera": 6592,
      "كوم": 6593,
      "##نح": 6594,
      "معرف": 6595,
      "شابة": 6596,
      "هاذو": 6597,
      "##yor": 6598,
      "need": 6599,
      "خطر": 6600,
      "##ناو": 6601,
      "ملت": 6602,
      "##بري": 6603,
      "شييا": 6604,
      "char": 6605,
      "tch": 6606,
      "الماك": 6607,
      "تتع": 6608,
      "الامارات": 6609,
      "##ziz": 6610,
      "المفروض": 6611,
      "##جيل": 6612,
      "##ound": 6613,
      "صغار": 6614,
      "واحنا": 6615,
      "##yi": 6616,
      "مليار": 6617,
      "بالاك": 6618,
      "نقولك": 6619,
      "اسمها": 6620,
      "bd": 6621,
      "كذب": 6622,
      "نخدم": 6623,
      "akh": 6624,
      "قالوا": 6625,
      "temps": 6626,
      "طبيب": 6627,
      "##して": 6628,
      "حن": 6629,
      "البشر": 6630,
      "zah": 6631,
      "##هرب": 6632,
      "##ations": 6633,
      "bg": 6634,
      "ياتي": 6635,
      "##ليا": 6636,
      "يتح": 6637,
      "بالد": 6638,
      "الجواب": 6639,
      "تحسب": 6640,
      "يخي": 6641,
      "تبكي": 6642,
      "##رررر": 6643,
      "##صير": 6644,
      "التش": 6645,
      "##بعث": 6646,
      "بلغ": 6647,
      "##عوا": 6648,
      "سرق": 6649,
      "##يبه": 6650,
      "فرصة": 6651,
      "rass": 6652,
      "way": 6653,
      "احي": 6654,
      "عذاب": 6655,
      "الشعبي": 6656,
      "tl": 6657,
      "العسك": 6658,
      "التن": 6659,
      "##لاقي": 6660,
      "وتت": 6661,
      "باطل": 6662,
      "##نيك": 6663,
      "تذكر": 6664,
      "اصل": 6665,
      "##لوها": 6666,
      "مشاكل": 6667,
      "غيره": 6668,
      "الامة": 6669,
      "nn": 6670,
      "din": 6671,
      "##لاف": 6672,
      "الحرب": 6673,
      "متع": 6674,
      "##ites": 6675,
      "خم": 6676,
      "الرمضان": 6677,
      "بی": 6678,
      "##raf": 6679,
      "ممت": 6680,
      "n9": 6681,
      "##jr": 6682,
      "##oune": 6683,
      "بلاصة": 6684,
      "##دى": 6685,
      "يفتح": 6686,
      "##وما": 6687,
      "there": 6688,
      "##رون": 6689,
      "##lt": 6690,
      "##شفى": 6691,
      "ينا": 6692,
      "يلق": 6693,
      "kayen": 6694,
      "twa7ch": 6695,
      "algeria": 6696,
      "لاخ": 6697,
      "تحكم": 6698,
      "depuis": 6699,
      "##rab": 6700,
      "اخو": 6701,
      "bsahtkom": 6702,
      "الثانية": 6703,
      "toujours": 6704,
      "الحرام": 6705,
      "oh": 6706,
      "تجعل": 6707,
      "فب": 6708,
      "bech": 6709,
      "نعي": 6710,
      "respe": 6711,
      "حابة": 6712,
      "##ـه": 6713,
      "المسوو": 6714,
      "##افيه": 6715,
      "##🔥🔥": 6716,
      "شكل": 6717,
      "معاكم": 6718,
      "اسال": 6719,
      "ud": 6720,
      "##داف": 6721,
      "ys": 6722,
      "##وصبع": 6723,
      "ارد": 6724,
      "##aire": 6725,
      "##ليفون": 6726,
      "للس": 6727,
      "نديرو": 6728,
      "صديق": 6729,
      "##راما": 6730,
      "ia": 6731,
      "يمشي": 6732,
      "ani": 6733,
      "البد": 6734,
      "wak": 6735,
      "##قته": 6736,
      "##iter": 6737,
      "voir": 6738,
      "autre": 6739,
      "اليمن": 6740,
      "##ــــــــ": 6741,
      "للجزاير": 6742,
      "##طير": 6743,
      "ess": 6744,
      "الحاجة": 6745,
      "ez": 6746,
      "ترامب": 6747,
      "حكاية": 6748,
      "واتوب": 6749,
      "بعدين": 6750,
      "ran": 6751,
      "الفجر": 6752,
      "nk": 6753,
      "##tic": 6754,
      "##اشرة": 6755,
      "supp": 6756,
      "نهاية": 6757,
      "عهد": 6758,
      "tet": 6759,
      "افت": 6760,
      "ديرو": 6761,
      "##bel": 6762,
      "ll": 6763,
      "sais": 6764,
      "استحى": 6765,
      "السلطة": 6766,
      "مالك": 6767,
      "##ابو": 6768,
      "البش": 6769,
      "سمعت": 6770,
      "##ياه": 6771,
      "##قاط": 6772,
      "##👏👏": 6773,
      "الطب": 6774,
      "##ودي": 6775,
      "##وجي": 6776,
      "قاعدة": 6777,
      "تعطي": 6778,
      "oum": 6779,
      "slm": 6780,
      "طفل": 6781,
      "##زر": 6782,
      "تعمل": 6783,
      "الاسلامية": 6784,
      "avoir": 6785,
      "##😭😭😭": 6786,
      "match": 6787,
      "اوم": 6788,
      "هات": 6789,
      "##جاج": 6790,
      "لحق": 6791,
      "twa7chtek": 6792,
      "جميلة": 6793,
      "يغفر": 6794,
      "##par": 6795,
      "moh": 6796,
      "##فية": 6797,
      "نجي": 6798,
      "هههههههههه": 6799,
      "سواء": 6800,
      "الولا": 6801,
      "##دها": 6802,
      "التوفيق": 6803,
      "##ـا": 6804,
      "ela": 6805,
      "why": 6806,
      "ضرك": 6807,
      "لاني": 6808,
      "عمرها": 6809,
      "يهدينا": 6810,
      "hadj": 6811,
      "##داء": 6812,
      "واجعل": 6813,
      "して": 6814,
      "błedna": 6815,
      "gar": 6816,
      "sto": 6817,
      "##اهرة": 6818,
      "algeriens": 6819,
      "xd": 6820,
      "للخ": 6821,
      "بالب": 6822,
      "##dil": 6823,
      "chez": 6824,
      "gue": 6825,
      "int": 6826,
      "مدرب": 6827,
      "##رط": 6828,
      "بينات": 6829,
      "##mat": 6830,
      "السماء": 6831,
      "مدينة": 6832,
      "##الج": 6833,
      "##adj": 6834,
      "##if": 6835,
      "صو": 6836,
      "وشكرا": 6837,
      "hiya": 6838,
      "الخارج": 6839,
      "حقيقة": 6840,
      "haka": 6841,
      "b3": 6842,
      "##اهي": 6843,
      "mis": 6844,
      "لانهم": 6845,
      "تطلع": 6846,
      "بمع": 6847,
      "den": 6848,
      "fir": 6849,
      "حراك": 6850,
      "##فيض": 6851,
      "بوم": 6852,
      "##😹😹": 6853,
      "inf": 6854,
      "##hammed": 6855,
      "##فها": 6856,
      "##ااااا": 6857,
      "##ollow": 6858,
      "رضي": 6859,
      "##ese": 6860,
      "نورم": 6861,
      "فالح": 6862,
      "القدس": 6863,
      "bed": 6864,
      "cel": 6865,
      "##نش": 6866,
      "##rait": 6867,
      "الفساد": 6868,
      "##یک": 6869,
      "##بقى": 6870,
      "##ريو": 6871,
      "يكتب": 6872,
      "##ميس": 6873,
      "##pu": 6874,
      "##جليزية": 6875,
      "pat": 6876,
      "##صا": 6877,
      "##line": 6878,
      "##هران": 6879,
      "نشالله": 6880,
      "dok": 6881,
      "بهد": 6882,
      "سخ": 6883,
      "الوالدين": 6884,
      "##فري": 6885,
      "##قدة": 6886,
      "ويصبر": 6887,
      "rev": 6888,
      "##خله": 6889,
      "##ليها": 6890,
      "look": 6891,
      "##رده": 6892,
      "الرمضانية": 6893,
      "##27": 6894,
      "##هورية": 6895,
      "##جعله": 6896,
      "kolyom": 6897,
      "دليل": 6898,
      "لذلك": 6899,
      "##باع": 6900,
      "dm": 6901,
      "##سيون": 6902,
      "توك": 6903,
      "الراس": 6904,
      "دعوة": 6905,
      "deux": 6906,
      "دقايق": 6907,
      "##اخر": 6908,
      "##رونا": 6909,
      "##far": 6910,
      "القلوب": 6911,
      "شعر": 6912,
      "##هير": 6913,
      "الراجل": 6914,
      "bek": 6915,
      "##gar": 6916,
      "يشكي": 6917,
      "wsh": 6918,
      "ليهم": 6919,
      "المري": 6920,
      "ماهي": 6921,
      "too": 6922,
      "##روه": 6923,
      "القرار": 6924,
      "الطيب": 6925,
      "مرحبا": 6926,
      "يمد": 6927,
      "ang": 6928,
      "aff": 6929,
      "صحي": 6930,
      "##رتها": 6931,
      "سيري": 6932,
      "premi": 6933,
      "انني": 6934,
      "##hach": 6935,
      "entre": 6936,
      "😍😍😍": 6937,
      "leurs": 6938,
      "autres": 6939,
      "bul": 6940,
      "kou": 6941,
      "سنه": 6942,
      "##مات": 6943,
      "##gy": 6944,
      "رفع": 6945,
      "##رفض": 6946,
      "##its": 6947,
      "توف": 6948,
      "##غيير": 6949,
      "ليبيا": 6950,
      "😭😭😭😭😭": 6951,
      "اصدق": 6952,
      "الشهر": 6953,
      "diff": 6954,
      "اقسم": 6955,
      "يرزقك": 6956,
      "zak": 6957,
      "بتاع": 6958,
      "vais": 6959,
      "اسي": 6960,
      "##لاثة": 6961,
      "would": 6962,
      "##ومات": 6963,
      "hed": 6964,
      "sti": 6965,
      "##یه": 6966,
      "souha": 6967,
      "##gan": 6968,
      "##2a": 6969,
      "الها": 6970,
      "khe": 6971,
      "##صال": 6972,
      "tam": 6973,
      "see": 6974,
      "خرش": 6975,
      "cre": 6976,
      "##ᅡᆫ": 6977,
      "##wk": 6978,
      "##روق": 6979,
      "الكرة": 6980,
      "##موعة": 6981,
      "ظلم": 6982,
      "##جون": 6983,
      "اشهر": 6984,
      "ارا": 6985,
      "##شل": 6986,
      "islam": 6987,
      "الرسول": 6988,
      "الواس": 6989,
      "##🤣😂": 6990,
      "3al": 6991,
      "عني": 6992,
      "فهمت": 6993,
      "بذ": 6994,
      "##تت": 6995,
      "وحدك": 6996,
      "الخدمة": 6997,
      "##ليات": 6998,
      "انف": 6999,
      "war": 7000,
      "hamza": 7001,
      "hat": 7002,
      "يكفي": 7003,
      "بام": 7004,
      "ربع": 7005,
      "##جين": 7006,
      "فيلم": 7007,
      "kamel": 7008,
      "##ulu": 7009,
      "##uc": 7010,
      "لسان": 7011,
      "سين": 7012,
      "##حاب": 7013,
      "خالد": 7014,
      "r5": 7015,
      "تربح": 7016,
      "sol": 7017,
      "خخخخخ": 7018,
      "##مرة": 7019,
      "sid": 7020,
      "اذن": 7021,
      "ترد": 7022,
      "mois": 7023,
      "##اغ": 7024,
      "للناس": 7025,
      "##وتنا": 7026,
      "بهم": 7027,
      "لـ": 7028,
      "##jet": 7029,
      "مسكينة": 7030,
      "التلف": 7031,
      "تبر": 7032,
      "##nt": 7033,
      "الست": 7034,
      "سبع": 7035,
      "الور": 7036,
      "mm": 7037,
      "##zel": 7038,
      "##اسة": 7039,
      "##مانة": 7040,
      "##ايع": 7041,
      "ريال": 7042,
      "##gr": 7043,
      "##ました": 7044,
      "##ste": 7045,
      "حاليا": 7046,
      "شاب": 7047,
      "النجاح": 7048,
      "الحالة": 7049,
      "تماما": 7050,
      "shi": 7051,
      "معروف": 7052,
      "##awad": 7053,
      "فلان": 7054,
      "فاس": 7055,
      "النور": 7056,
      "##نفس": 7057,
      "##ma3": 7058,
      "##نار": 7059,
      "##ellement": 7060,
      "##سلي": 7061,
      "##طول": 7062,
      "الاخرين": 7063,
      "الزمن": 7064,
      "يشفيها": 7065,
      "franca": 7066,
      "الفتنة": 7067,
      "##برة": 7068,
      "تحتاج": 7069,
      "##mail": 7070,
      "لز": 7071,
      "##بون": 7072,
      "اخرج": 7073,
      "amir": 7074,
      "##اعات": 7075,
      "مسوو": 7076,
      "ههههههههههههههههه": 7077,
      "macha": 7078,
      "بالخير": 7079,
      "جر": 7080,
      "##صه": 7081,
      "وبي": 7082,
      "##lach": 7083,
      "meh": 7084,
      "##شا": 7085,
      "يبان": 7086,
      "##🙏🙏": 7087,
      "لغة": 7088,
      "##ظمة": 7089,
      "جامعة": 7090,
      "جلطي": 7091,
      "ضعي": 7092,
      "مدام": 7093,
      "##يع": 7094,
      "##kr": 7095,
      "##ابهم": 7096,
      "بالخ": 7097,
      "العزيز": 7098,
      "بلع": 7099,
      "صلاح": 7100,
      "تكن": 7101,
      "وبارك": 7102,
      "سبحانه": 7103,
      "الـ": 7104,
      "ماج": 7105,
      "##عى": 7106,
      "تعود": 7107,
      "يخاف": 7108,
      "ولله": 7109,
      "put": 7110,
      "2019": 7111,
      "nab": 7112,
      "##gen": 7113,
      "راج": 7114,
      "ena": 7115,
      "frere": 7116,
      "##بارح": 7117,
      "اسمع": 7118,
      "صدام": 7119,
      "##rf": 7120,
      "تحبه": 7121,
      "##den": 7122,
      "##veau": 7123,
      "فلم": 7124,
      "الزم": 7125,
      "باغي": 7126,
      "##روحي": 7127,
      "##زيون": 7128,
      "##anya": 7129,
      "واج": 7130,
      "##ey": 7131,
      "##ديهم": 7132,
      "الخي": 7133,
      "ec": 7134,
      "نقطة": 7135,
      "vive": 7136,
      "##دن": 7137,
      "ظروف": 7138,
      "تصرف": 7139,
      "هن": 7140,
      "ميم": 7141,
      "هكدا": 7142,
      "انكم": 7143,
      "يحكي": 7144,
      "ورب": 7145,
      "تما": 7146,
      "ظهر": 7147,
      "##بغ": 7148,
      "يطول": 7149,
      "سعد": 7150,
      "##bt": 7151,
      "##9t": 7152,
      "even": 7153,
      "##حلي": 7154,
      "nom": 7155,
      "##ريبة": 7156,
      "ncha": 7157,
      "جار": 7158,
      "##بيها": 7159,
      "##til": 7160,
      "##kar": 7161,
      "اعلام": 7162,
      "الرحمن": 7163,
      "famille": 7164,
      "oua": 7165,
      "rapp": 7166,
      "نادي": 7167,
      "الاث": 7168,
      "معن": 7169,
      "ine": 7170,
      "بير": 7171,
      "يحدث": 7172,
      "##del": 7173,
      "##ute": 7174,
      "ره": 7175,
      "الدعاء": 7176,
      "السما": 7177,
      "3an": 7178,
      "##حور": 7179,
      "نحكي": 7180,
      "حكي": 7181,
      "حاول": 7182,
      "##ooo": 7183,
      "rap": 7184,
      "رض": 7185,
      "fri": 7186,
      "ذهب": 7187,
      "الكم": 7188,
      "ساعد": 7189,
      "اسبوع": 7190,
      "وانتي": 7191,
      "roh": 7192,
      "الفرنسي": 7193,
      "صاد": 7194,
      "الدم": 7195,
      "wahd": 7196,
      "فط": 7197,
      "وجوه": 7198,
      "معلق": 7199,
      "dik": 7200,
      "حبس": 7201,
      "##صدق": 7202,
      "للط": 7203,
      "يمن": 7204,
      "يستحق": 7205,
      "hata": 7206,
      "##النا": 7207,
      "فانت": 7208,
      "rana": 7209,
      "act": 7210,
      "##جوز": 7211,
      "art": 7212,
      "الاخيرة": 7213,
      "جمعة": 7214,
      "##اينا": 7215,
      "يغير": 7216,
      "يعوض": 7217,
      "بحق": 7218,
      "وحتى": 7219,
      "rebi": 7220,
      "برنامج": 7221,
      "##ady": 7222,
      "ومات": 7223,
      "san": 7224,
      "ui": 7225,
      "ydir": 7226,
      "تحياتي": 7227,
      "ايد": 7228,
      "تري": 7229,
      "##ouche": 7230,
      "المشكلة": 7231,
      "##hahahaha": 7232,
      "سهيلة": 7233,
      "avant": 7234,
      "عملية": 7235,
      "فرج": 7236,
      "##لمان": 7237,
      "zelet": 7238,
      "اخوان": 7239,
      "##chem": 7240,
      "author": 7241,
      "##oula": 7242,
      "##itch": 7243,
      "arri": 7244,
      "يدور": 7245,
      "بطريقة": 7246,
      "يوسف": 7247,
      "سبي": 7248,
      "##ابر": 7249,
      "##ttre": 7250,
      "mai": 7251,
      "اغنية": 7252,
      "##ادو": 7253,
      "##جية": 7254,
      "هدف": 7255,
      "aller": 7256,
      "حوايج": 7257,
      "رون": 7258,
      "العايلة": 7259,
      "##ader": 7260,
      "##けと": 7261,
      "وحدي": 7262,
      "deb": 7263,
      "##tik": 7264,
      "only": 7265,
      "walid": 7266,
      "بور": 7267,
      "جبت": 7268,
      "contin": 7269,
      "pun": 7270,
      "ياخذ": 7271,
      "برشل": 7272,
      "الفاس": 7273,
      "قوم": 7274,
      "ماجر": 7275,
      "##عبد": 7276,
      "التق": 7277,
      "احبك": 7278,
      "يفر": 7279,
      "##🏻♂": 7280,
      "##ju": 7281,
      "##لتها": 7282,
      "نفسها": 7283,
      "ربك": 7284,
      "لبنان": 7285,
      "karim": 7286,
      "##ws": 7287,
      "want": 7288,
      "قوي": 7289,
      "الموس": 7290,
      "لست": 7291,
      "much": 7292,
      "##هول": 7293,
      "الخام": 7294,
      "wa7": 7295,
      "##اصر": 7296,
      "wy": 7297,
      "##تيها": 7298,
      "got": 7299,
      "قهوة": 7300,
      "رق": 7301,
      "##المين": 7302,
      "lma": 7303,
      "حاش": 7304,
      "نعيش": 7305,
      "رف": 7306,
      "اليد": 7307,
      "vos": 7308,
      "كذلك": 7309,
      "##رفي": 7310,
      "##اند": 7311,
      "##ient": 7312,
      "افهم": 7313,
      "bak": 7314,
      "##ظيف": 7315,
      "فـ": 7316,
      "dh": 7317,
      "mina": 7318,
      "nam": 7319,
      "##خيل": 7320,
      "كاملة": 7321,
      "المرض": 7322,
      "ptd": 7323,
      "##aux": 7324,
      "##واس": 7325,
      "##اكت": 7326,
      "##own": 7327,
      "يرج": 7328,
      "خخخ": 7329,
      "##لار": 7330,
      "تبدا": 7331,
      "##طبخ": 7332,
      "ويه": 7333,
      "تقريبا": 7334,
      "##صفحة": 7335,
      "##yle": 7336,
      "##رته": 7337,
      "عظيم": 7338,
      "موقف": 7339,
      "اريد": 7340,
      "بوج": 7341,
      "mdrrrr": 7342,
      "vs": 7343,
      "##3i": 7344,
      "##yat": 7345,
      "lea": 7346,
      "مشكلة": 7347,
      "##لعو": 7348,
      "واقع": 7349,
      "معهم": 7350,
      "متح": 7351,
      "تخلي": 7352,
      "r5is": 7353,
      "kont": 7354,
      "نتمنى": 7355,
      "messa": 7356,
      "بقى": 7357,
      "عا": 7358,
      "يدو": 7359,
      "##ving": 7360,
      "شاءالله": 7361,
      "حلوة": 7362,
      "cons": 7363,
      "##شية": 7364,
      "والط": 7365,
      "بنتي": 7366,
      "##angan": 7367,
      "دی": 7368,
      "تاعهم": 7369,
      "##عمه": 7370,
      "بجد": 7371,
      "الاقت": 7372,
      "بث": 7373,
      "##ريا": 7374,
      "##هههههه": 7375,
      "##فسة": 7376,
      "الامل": 7377,
      "رجعت": 7378,
      "الاعت": 7379,
      "مفيش": 7380,
      "##ينك": 7381,
      "نصيحة": 7382,
      "tom": 7383,
      "خاي": 7384,
      "احرار": 7385,
      "##تاق": 7386,
      "##صول": 7387,
      "ترب": 7388,
      "##ـم": 7389,
      "##راقي": 7390,
      "para": 7391,
      "الثورة": 7392,
      "مباراة": 7393,
      "##بيبة": 7394,
      "inchallah": 7395,
      "photo": 7396,
      "yt": 7397,
      "تفك": 7398,
      "hd": 7399,
      "##سيتي": 7400,
      "عنهم": 7401,
      "ساعات": 7402,
      "##زب": 7403,
      "##اتذة": 7404,
      "تتح": 7405,
      "عيط": 7406,
      "os": 7407,
      "youcef": 7408,
      "##طبق": 7409,
      "نموت": 7410,
      "nat": 7411,
      "الوزير": 7412,
      "تقعد": 7413,
      "زيتوت": 7414,
      "سط": 7415,
      "main": 7416,
      "##وووووووو": 7417,
      "##tu": 7418,
      "ماء": 7419,
      "ques": 7420,
      "liber": 7421,
      "##ident": 7422,
      "courage": 7423,
      "##تمام": 7424,
      "end": 7425,
      "3ar": 7426,
      "rajel": 7427,
      "##شك": 7428,
      "##بول": 7429,
      "فهي": 7430,
      "نشوفو": 7431,
      "##جوم": 7432,
      "toute": 7433,
      "فيما": 7434,
      "team": 7435,
      "تخلص": 7436,
      "abdou": 7437,
      "تقولو": 7438,
      "فترة": 7439,
      "berk": 7440,
      "ide": 7441,
      "يقلك": 7442,
      "please": 7443,
      "نضحك": 7444,
      "يسب": 7445,
      "الفرنسية": 7446,
      "yout": 7447,
      "##bs": 7448,
      "##endant": 7449,
      "السعودي": 7450,
      "##غا": 7451,
      "fati": 7452,
      "maj": 7453,
      "فضل": 7454,
      "##نها": 7455,
      "##يروس": 7456,
      "صراحة": 7457,
      "##روي": 7458,
      "khaled": 7459,
      "alle": 7460,
      "بديت": 7461,
      "##واق": 7462,
      "الاحد": 7463,
      "مجلس": 7464,
      "##wn": 7465,
      "##22": 7466,
      "ننت": 7467,
      "اربع": 7468,
      "##ذار": 7469,
      "ذنب": 7470,
      "##نص": 7471,
      "##by": 7472,
      "##aye": 7473,
      "ابرا": 7474,
      "##اطا": 7475,
      "سوء": 7476,
      "قريت": 7477,
      "##اوية": 7478,
      "فلوس": 7479,
      "haf": 7480,
      "تمر": 7481,
      "تكتب": 7482,
      "##تع": 7483,
      "##املة": 7484,
      "3lih": 7485,
      "##اور": 7486,
      "##عمار": 7487,
      "بلماضي": 7488,
      "ru": 7489,
      "##rib": 7490,
      "28": 7491,
      "ابد": 7492,
      "الزيت": 7493,
      "##اوش": 7494,
      "their": 7495,
      "نريد": 7496,
      "##یل": 7497,
      "etes": 7498,
      "اشياء": 7499,
      "تنكرت": 7500,
      "دارت": 7501,
      "جمهور": 7502,
      "##ards": 7503,
      "مسي": 7504,
      "##سام": 7505,
      "##com": 7506,
      "ny": 7507,
      "##53": 7508,
      "صايمة": 7509,
      "##9ra": 7510,
      "##10": 7511,
      "وشع": 7512,
      "conna": 7513,
      "نصف": 7514,
      "foot": 7515,
      "شن": 7516,
      "##توه": 7517,
      "تكمل": 7518,
      "الامن": 7519,
      "##قلب": 7520,
      "##3o": 7521,
      "##لقت": 7522,
      "فايدة": 7523,
      "##ks": 7524,
      "##زلت": 7525,
      "الڨ": 7526,
      "det": 7527,
      "##طفال": 7528,
      "غريب": 7529,
      "وتك": 7530,
      "##قمجة": 7531,
      "##ولية": 7532,
      "السياسي": 7533,
      "##cy": 7534,
      "والديك": 7535,
      "يسعد": 7536,
      "التعليقات": 7537,
      "المعت": 7538,
      "##ماغ": 7539,
      "يحت": 7540,
      "تتزوج": 7541,
      "حلم": 7542,
      "ويوسع": 7543,
      "بسم": 7544,
      "##ييي": 7545,
      "اناديك": 7546,
      "البارح": 7547,
      "رسم": 7548,
      "حقا": 7549,
      "ترقد": 7550,
      "happy": 7551,
      "##لاقة": 7552,
      "مصل": 7553,
      "يحط": 7554,
      "راسو": 7555,
      "يصير": 7556,
      "المستوى": 7557,
      "##ناعة": 7558,
      "##قلال": 7559,
      "توج": 7560,
      "الخبر": 7561,
      "##وانين": 7562,
      "##كال": 7563,
      "وزارة": 7564,
      "##🙂🙂": 7565,
      "##lini": 7566,
      "##uuuu": 7567,
      "انكرت": 7568,
      "lil": 7569,
      "لواحد": 7570,
      "##19": 7571,
      "##رامة": 7572,
      "ملوا": 7573,
      "هـ": 7574,
      "##ures": 7575,
      "##المون": 7576,
      "veut": 7577,
      "tg": 7578,
      "الغرب": 7579,
      "شاي": 7580,
      "make": 7581,
      "تخاف": 7582,
      "وحدو": 7583,
      "والام": 7584,
      "العقل": 7585,
      "تفكر": 7586,
      "##طع": 7587,
      "ونتا": 7588,
      "##صاب": 7589,
      "comm": 7590,
      "tri": 7591,
      "معها": 7592,
      "دايرين": 7593,
      "قسم": 7594,
      "مدا": 7595,
      "الجزاء": 7596,
      "sak": 7597,
      "sie": 7598,
      "##غب": 7599,
      "##اتم": 7600,
      "##ikh": 7601,
      "ولما": 7602,
      "رسالة": 7603,
      "bli": 7604,
      "##زيرية": 7605,
      "##سلات": 7606,
      "##eres": 7607,
      "الحجر": 7608,
      "mag": 7609,
      "انتخابات": 7610,
      "الطالب": 7611,
      "##たい": 7612,
      "##ᅳᆫ": 7613,
      "الخز": 7614,
      "عكس": 7615,
      "وبال": 7616,
      "اعتقد": 7617,
      "##haw": 7618,
      "لنفس": 7619,
      "aj": 7620,
      "oussama": 7621,
      "الال": 7622,
      "##let": 7623,
      "ملواحي": 7624,
      "tas": 7625,
      "##you": 7626,
      "العباد": 7627,
      "حاكم": 7628,
      "خوف": 7629,
      "##تيك": 7630,
      "يقولون": 7631,
      "diri": 7632,
      "##ru": 7633,
      "حسيت": 7634,
      "##راوي": 7635,
      "حصل": 7636,
      "خايف": 7637,
      "مباشر": 7638,
      "sahra": 7639,
      "اكون": 7640,
      "##انين": 7641,
      "للشعب": 7642,
      "##eddine": 7643,
      "moment": 7644,
      "فح": 7645,
      "ol": 7646,
      "##f9": 7647,
      "##رجال": 7648,
      "let": 7649,
      "nm": 7650,
      "lina": 7651,
      "##قام": 7652,
      "ceux": 7653,
      "ادخل": 7654,
      "ريح": 7655,
      "3ala": 7656,
      "msba7": 7657,
      "##rine": 7658,
      "##🌹🌹": 7659,
      "خصوص": 7660,
      "osk": 7661,
      "تبارك": 7662,
      "##ولين": 7663,
      "##قلبي": 7664,
      "te3": 7665,
      "يستطيع": 7666,
      "فاع": 7667,
      "##io": 7668,
      "##さい": 7669,
      "ida": 7670,
      "##ريحة": 7671,
      "والغ": 7672,
      "mala": 7673,
      "نتع": 7674,
      "##مش": 7675,
      "ونص": 7676,
      "##ظلم": 7677,
      "##ᅡᆼ": 7678,
      "لار": 7679,
      "ناك": 7680,
      "تشري": 7681,
      "اظن": 7682,
      "الاعمال": 7683,
      "bang": 7684,
      "مدة": 7685,
      "##حبس": 7686,
      "وكم": 7687,
      "##عدل": 7688,
      "##خلف": 7689,
      "توصل": 7690,
      "مباشرة": 7691,
      "الافضل": 7692,
      "شهادة": 7693,
      "tbahdil": 7694,
      "العط": 7695,
      "##udi": 7696,
      "##😡😡": 7697,
      "لاف": 7698,
      "اقرب": 7699,
      "خفي": 7700,
      "##ذف": 7701,
      "##ـن": 7702,
      "def": 7703,
      "pal": 7704,
      "sous": 7705,
      "دام": 7706,
      "##ches": 7707,
      "كاينة": 7708,
      "عزيز": 7709,
      "##كاين": 7710,
      "nek": 7711,
      "jest": 7712,
      "خليك": 7713,
      "exc": 7714,
      "##بلي": 7715,
      "##حبش": 7716,
      "sarah": 7717,
      "##هن": 7718,
      "يحفظهم": 7719,
      "##بلو": 7720,
      "تاعها": 7721,
      "bin": 7722,
      "تبي": 7723,
      "تفرجتوا": 7724,
      "dur": 7725,
      "##انات": 7726,
      "فالج": 7727,
      "grave": 7728,
      "عربية": 7729,
      "فرا": 7730,
      "##cte": 7731,
      "mdrrr": 7732,
      "مها": 7733,
      "belle": 7734,
      "الهو": 7735,
      "##بحث": 7736,
      "##ku": 7737,
      "العيب": 7738,
      "امراة": 7739,
      "شفاء": 7740,
      "التعليم": 7741,
      "follow": 7742,
      "الدستور": 7743,
      "النف": 7744,
      "##سى": 7745,
      "##wo": 7746,
      "##cin": 7747,
      "نرقد": 7748,
      "نهدر": 7749,
      "##طلب": 7750,
      "enf": 7751,
      "علابالي": 7752,
      "الروح": 7753,
      "##asi": 7754,
      "##👇👇": 7755,
      "الصحي": 7756,
      "ادي": 7757,
      "##ضو": 7758,
      "##mid": 7759,
      "ترج": 7760,
      "يصلح": 7761,
      "##orte": 7762,
      "##quer": 7763,
      "meriem": 7764,
      "a7": 7765,
      "##book": 7766,
      "##خرين": 7767,
      "اقوى": 7768,
      "بوصبع": 7769,
      "يحتاج": 7770,
      "##ica": 7771,
      "وطني": 7772,
      "يوفقك": 7773,
      "makan": 7774,
      "##قراطية": 7775,
      "##شين": 7776,
      "##غام": 7777,
      "غاض": 7778,
      "##كك": 7779,
      "##ning": 7780,
      "apa": 7781,
      "##زاب": 7782,
      "لول": 7783,
      "الشمس": 7784,
      "koul": 7785,
      "##wiya": 7786,
      "hum": 7787,
      "##tout": 7788,
      "mort": 7789,
      "يبي": 7790,
      "##سس": 7791,
      "ane": 7792,
      "##شار": 7793,
      "##نتي": 7794,
      "##gre": 7795,
      "mama": 7796,
      "جزء": 7797,
      "##اوه": 7798,
      "الصغير": 7799,
      "tur": 7800,
      "طويل": 7801,
      "##alo": 7802,
      "يشفيك": 7803,
      "قرا": 7804,
      "كات": 7805,
      "❤❤❤": 7806,
      "mec": 7807,
      "##king": 7808,
      "ev": 7809,
      "jam": 7810,
      "الكون": 7811,
      "khouya": 7812,
      "نار": 7813,
      "يقت": 7814,
      "کے": 7815,
      "الشارع": 7816,
      "veux": 7817,
      "حلال": 7818,
      "ندخل": 7819,
      "bent": 7820,
      "##ım": 7821,
      "point": 7822,
      "##واها": 7823,
      "ربح": 7824,
      "الني": 7825,
      "كلب": 7826,
      "بيب": 7827,
      "يتك": 7828,
      "##ظار": 7829,
      "وله": 7830,
      "نسم": 7831,
      "trans": 7832,
      "الصغ": 7833,
      "##تري": 7834,
      "##كله": 7835,
      "وتقول": 7836,
      "سيكون": 7837,
      "الشيء": 7838,
      "وارحم": 7839,
      "hmd": 7840,
      "lab": 7841,
      "##عوة": 7842,
      "bhi": 7843,
      "##قوا": 7844,
      "الكويت": 7845,
      "##ايج": 7846,
      "big": 7847,
      "dima": 7848,
      "جيدا": 7849,
      "lw": 7850,
      "y9": 7851,
      "##quoi": 7852,
      "galou": 7853,
      "##دنا": 7854,
      "nar": 7855,
      "مون": 7856,
      "uni": 7857,
      "lg": 7858,
      "##ᅡᄅ": 7859,
      "maf": 7860,
      "الكورونا": 7861,
      "الموسم": 7862,
      "احفظ": 7863,
      "يقعد": 7864,
      "lak": 7865,
      "tele": 7866,
      "vis": 7867,
      "حرية": 7868,
      "الذل": 7869,
      "tun": 7870,
      "وفق": 7871,
      "مساكن": 7872,
      "عبارة": 7873,
      "equi": 7874,
      "بالتوفيق": 7875,
      "gir": 7876,
      "احلام": 7877,
      "ثانية": 7878,
      "وعم": 7879,
      "##とう": 7880,
      "علب": 7881,
      "##isme": 7882,
      "##ions": 7883,
      "نقل": 7884,
      "mam": 7885,
      "asma": 7886,
      "محم": 7887,
      "يقولي": 7888,
      "##fd": 7889,
      "##さん": 7890,
      "نشر": 7891,
      "كارثه": 7892,
      "بلوك": 7893,
      "##على": 7894,
      "mau": 7895,
      "بتو": 7896,
      "##💪💪": 7897,
      "المدر": 7898,
      "##eta": 7899,
      "تسما": 7900,
      "osket": 7901,
      "وكيف": 7902,
      "##برو": 7903,
      "نحس": 7904,
      "msh": 7905,
      "برج": 7906,
      "والث": 7907,
      "gener": 7908,
      "هر": 7909,
      "هاديك": 7910,
      "##ديق": 7911,
      "يقوم": 7912,
      "يفرح": 7913,
      "ہے": 7914,
      "##رمين": 7915,
      "وقتها": 7916,
      "lot": 7917,
      "##dan": 7918,
      "anis": 7919,
      "##いい": 7920,
      "البقاء": 7921,
      "ارحمه": 7922,
      "قايد": 7923,
      "##💃💃": 7924,
      "انجاز": 7925,
      "الاذ": 7926,
      "جعل": 7927,
      "पर": 7928,
      "rahi": 7929,
      "مانيش": 7930,
      "##ath": 7931,
      "##اعي": 7932,
      "##وده": 7933,
      "الرب": 7934,
      "واجب": 7935,
      "##bia": 7936,
      "nina": 7937,
      "##لح": 7938,
      "يعيط": 7939,
      "##ريش": 7940,
      "##اجر": 7941,
      "ماد": 7942,
      "يخليك": 7943,
      "prop": 7944,
      "mieux": 7945,
      "##br": 7946,
      "orang": 7947,
      "haha": 7948,
      "amina": 7949,
      "نحي": 7950,
      "##ouri": 7951,
      "الشعر": 7952,
      "##toire": 7953,
      "lay": 7954,
      "الفرد": 7955,
      "##نيت": 7956,
      "##🇩🇿🇩🇿🇩🇿🇩🇿": 7957,
      "3nd": 7958,
      "##وام": 7959,
      "##ادرة": 7960,
      "عقل": 7961,
      "soit": 7962,
      "##istes": 7963,
      "##واطر": 7964,
      "الطفلة": 7965,
      "صرات": 7966,
      "##سون": 7967,
      "##나": 7968,
      "ندم": 7969,
      "##😏😏": 7970,
      "يحبو": 7971,
      "بسر": 7972,
      "parce": 7973,
      "##ester": 7974,
      "حولك": 7975,
      "m3ah": 7976,
      "مسم": 7977,
      "ناج": 7978,
      "الحديث": 7979,
      "نولي": 7980,
      "##قوبة": 7981,
      "zin": 7982,
      "##كة": 7983,
      "##كنها": 7984,
      "طاح": 7985,
      "الحار": 7986,
      "mess": 7987,
      "جهة": 7988,
      "بالغ": 7989,
      "التعليق": 7990,
      "نقدر": 7991,
      "جاية": 7992,
      "وصحبه": 7993,
      "تابع": 7994,
      "وفر": 7995,
      "##يتهم": 7996,
      "##tie": 7997,
      "##كرون": 7998,
      "كلمات": 7999,
      "ger": 8000,
      "ذات": 8001,
      "البال": 8002,
      "lagi": 8003,
      "yal": 8004,
      "دايرة": 8005,
      "وست": 8006,
      "الكب": 8007,
      "طاي": 8008,
      "oub": 8009,
      "الاقامة": 8010,
      "مقت": 8011,
      "قم": 8012,
      "##la3": 8013,
      "يومين": 8014,
      "لبعض": 8015,
      "ذك": 8016,
      "here": 8017,
      "المرح": 8018,
      "place": 8019,
      "##ادل": 8020,
      "السب": 8021,
      "يجو": 8022,
      "##شيخ": 8023,
      "ديجا": 8024,
      "هز": 8025,
      "🙄🙄": 8026,
      "fal": 8027,
      "غيرك": 8028,
      "هيك": 8029,
      "blo": 8030,
      "كس": 8031,
      "وتش": 8032,
      "##wan": 8033,
      "قالهم": 8034,
      "hhhhhhh": 8035,
      "نسال": 8036,
      "لوجه": 8037,
      "وعي": 8038,
      "الباقي": 8039,
      "سيريو": 8040,
      "تفر": 8041,
      "مقروط": 8042,
      "##وبيا": 8043,
      "l7": 8044,
      "يشكى": 8045,
      "##شعب": 8046,
      "مجتمع": 8047,
      "ناقص": 8048,
      "الابيض": 8049,
      "well": 8050,
      "##pl": 8051,
      "##الد": 8052,
      "خسارة": 8053,
      "ry": 8054,
      "t7": 8055,
      "##sel": 8056,
      "العسكر": 8057,
      "الصبح": 8058,
      "باست": 8059,
      "cam": 8060,
      "mch": 8061,
      "##اعه": 8062,
      "##قيات": 8063,
      "hass": 8064,
      "##ान": 8065,
      "lkh": 8066,
      "فالع": 8067,
      "##دوه": 8068,
      "علمانيه": 8069,
      "عمره": 8070,
      "itu": 8071,
      "sv": 8072,
      "معناها": 8073,
      "تقوم": 8074,
      "اية": 8075,
      "غدا": 8076,
      "##دايي": 8077,
      "##ix": 8078,
      "##وسة": 8079,
      "سور": 8080,
      "سكر": 8081,
      "90": 8082,
      "gol": 8083,
      "نتفرج": 8084,
      "بشر": 8085,
      "##gent": 8086,
      "##ash": 8087,
      "ينفع": 8088,
      "nation": 8089,
      "same": 8090,
      "##حا": 8091,
      "##طرة": 8092,
      "للف": 8093,
      "مكتوب": 8094,
      "خذ": 8095,
      "covid": 8096,
      "raki": 8097,
      "يعود": 8098,
      "bh": 8099,
      "##ution": 8100,
      "wech": 8101,
      "طبيعي": 8102,
      "جزايرية": 8103,
      "موقع": 8104,
      "##illa": 8105,
      "ارزق": 8106,
      "##بها": 8107,
      "##tk": 8108,
      "##33": 8109,
      "##🤲🤲": 8110,
      "احساس": 8111,
      "tv": 8112,
      "blan": 8113,
      "كنتي": 8114,
      "01": 8115,
      "lal": 8116,
      "##دور": 8117,
      "اعظم": 8118,
      "وتس": 8119,
      "ref": 8120,
      "الاشخاص": 8121,
      "##din": 8122,
      "سج": 8123,
      "تحوس": 8124,
      "لولا": 8125,
      "الغير": 8126,
      "##شكل": 8127,
      "##ᆼᄉ": 8128,
      "القبايل": 8129,
      "حاط": 8130,
      "##قدير": 8131,
      "مدري": 8132,
      "dari": 8133,
      "##ايدة": 8134,
      "##ديكم": 8135,
      "العي": 8136,
      "يستاهل": 8137,
      "اليهود": 8138,
      "سيب": 8139,
      "##قاش": 8140,
      "صديقي": 8141,
      "##اجد": 8142,
      "بف": 8143,
      "beli": 8144,
      "العد": 8145,
      "عزي": 8146,
      "##yak": 8147,
      "##nou": 8148,
      "##طط": 8149,
      "سوى": 8150,
      "غالي": 8151,
      "##ناع": 8152,
      "tek": 8153,
      "برض": 8154,
      "حديث": 8155,
      "tapi": 8156,
      "يحفظها": 8157,
      "trava": 8158,
      "المعل": 8159,
      "maa": 8160,
      "اعمال": 8161,
      "##سكت": 8162,
      "##جاه": 8163,
      "الفطور": 8164,
      "يبيع": 8165,
      "كتر": 8166,
      "مواطن": 8167,
      "anti": 8168,
      "الشيطان": 8169,
      "##dddd": 8170,
      "بالعكس": 8171,
      "برد": 8172,
      "##hing": 8173,
      "then": 8174,
      "اتو": 8175,
      "يبكي": 8176,
      "##قيت": 8177,
      "##ليس": 8178,
      "ويق": 8179,
      "لدرجة": 8180,
      "تجد": 8181,
      "تلقاه": 8182,
      "جاه": 8183,
      "##edj": 8184,
      "##ماع": 8185,
      "فالت": 8186,
      "بحولي": 8187,
      "احيانا": 8188,
      "##ريات": 8189,
      "الكلب": 8190,
      "تعد": 8191,
      "كاي": 8192,
      "تصبح": 8193,
      "##aaaaaaaa": 8194,
      "kem": 8195,
      "كلاب": 8196,
      "##oga": 8197,
      "##44": 8198,
      "##els": 8199,
      "seul": 8200,
      "##یی": 8201,
      "##بيين": 8202,
      "والمس": 8203,
      "##صو": 8204,
      "##صرف": 8205,
      "bk": 8206,
      "موش": 8207,
      "وقف": 8208,
      "3n": 8209,
      "##ds": 8210,
      "😅😅": 8211,
      "مختلف": 8212,
      "دوري": 8213,
      "ann": 8214,
      "بوك": 8215,
      "ميد": 8216,
      "هدر": 8217,
      "##غو": 8218,
      "##ومنين": 8219,
      "ديك": 8220,
      "نظر": 8221,
      "ياطير": 8222,
      "جان": 8223,
      "فاك": 8224,
      "المادة": 8225,
      "السعادة": 8226,
      "تغيير": 8227,
      "الاتحاد": 8228,
      "ek": 8229,
      "tho": 8230,
      "فه": 8231,
      "النظر": 8232,
      "وحدها": 8233,
      "khal": 8234,
      "الوز": 8235,
      "روحها": 8236,
      "منتخب": 8237,
      "mir": 8238,
      "##ينها": 8239,
      "يحس": 8240,
      "##اركة": 8241,
      "سياسة": 8242,
      "قاتلو": 8243,
      "##رير": 8244,
      "##ban": 8245,
      "الاخلاق": 8246,
      "##باه": 8247,
      "amel": 8248,
      "##اسية": 8249,
      "لمدة": 8250,
      "رفض": 8251,
      "يطيح": 8252,
      "اقرا": 8253,
      "##حقق": 8254,
      "الاعلى": 8255,
      "respect": 8256,
      "mana": 8257,
      "قمة": 8258,
      "##yer": 8259,
      "حكومة": 8260,
      "buat": 8261,
      "bb": 8262,
      "fans": 8263,
      "زم": 8264,
      "منعرف": 8265,
      "##فتش": 8266,
      "يعتبر": 8267,
      "المجال": 8268,
      "enti": 8269,
      "##مانينة": 8270,
      "ماله": 8271,
      "##xt": 8272,
      "##या": 8273,
      "عايز": 8274,
      "milli": 8275,
      "tm": 8276,
      "المشاكل": 8277,
      "##سنة": 8278,
      "bravo": 8279,
      "ابراهيم": 8280,
      "yk": 8281,
      "استاذة": 8282,
      "aga": 8283,
      "bgh": 8284,
      "whi": 8285,
      "##لكش": 8286,
      "mohammed": 8287,
      "صرا": 8288,
      "وسم": 8289,
      "الاسم": 8290,
      "تعي": 8291,
      "القضية": 8292,
      "life": 8293,
      "than": 8294,
      "prin": 8295,
      "الواسعة": 8296,
      "chaque": 8297,
      "##ايمان": 8298,
      "اولى": 8299,
      "fun": 8300,
      "روضة": 8301,
      "reste": 8302,
      "##توى": 8303,
      "still": 8304,
      "كلما": 8305,
      "fuck": 8306,
      "wo": 8307,
      "##gram": 8308,
      "##ريبه": 8309,
      "يجري": 8310,
      "really": 8311,
      "##hila": 8312,
      "vas": 8313,
      "zo": 8314,
      "##mal": 8315,
      "wl": 8316,
      "اهلك": 8317,
      "##rrr": 8318,
      "بمن": 8319,
      "over": 8320,
      "pos": 8321,
      "##بن": 8322,
      "##mel": 8323,
      "##صبح": 8324,
      "##رضا": 8325,
      "دني": 8326,
      "##ارف": 8327,
      "ههههههههههه": 8328,
      "##oto": 8329,
      "##وبة": 8330,
      "النوع": 8331,
      "eux": 8332,
      "pendant": 8333,
      "العكس": 8334,
      "بالط": 8335,
      "##gin": 8336,
      "وجل": 8337,
      "##والح": 8338,
      "وتن": 8339,
      "##main": 8340,
      "بعث": 8341,
      "تفكرت": 8342,
      "khoya": 8343,
      "lh": 8344,
      "##tch": 8345,
      "##فاد": 8346,
      "##adem": 8347,
      "been": 8348,
      "##cause": 8349,
      "الصحراء": 8350,
      "تاب": 8351,
      "##ظل": 8352,
      "عايلة": 8353,
      "##yen": 8354,
      "بالو": 8355,
      "bout": 8356,
      "الشرق": 8357,
      "بدي": 8358,
      "##eka": 8359,
      "tov": 8360,
      "syst": 8361,
      "برشلونة": 8362,
      "##ثيل": 8363,
      "##فتاح": 8364,
      "##gui": 8365,
      "حزب": 8366,
      "na3": 8367,
      "تطبيق": 8368,
      "##illes": 8369,
      "شخصيا": 8370,
      "##انك": 8371,
      "فالد": 8372,
      "##ۥۥ": 8373,
      "مادام": 8374,
      "annee": 8375,
      "surtout": 8376,
      "nya": 8377,
      "اكتب": 8378,
      "##سال": 8379,
      "9awad": 8380,
      "صلا": 8381,
      "الاخرى": 8382,
      "ness": 8383,
      "الجميل": 8384,
      "rad": 8385,
      "خود": 8386,
      "صوتي": 8387,
      "##lami": 8388,
      "للدار": 8389,
      "teb": 8390,
      "😒😒": 8391,
      "الضحك": 8392,
      "##tage": 8393,
      "social": 8394,
      "خطو": 8395,
      "الشعوب": 8396,
      "اردو": 8397,
      "الجمهورية": 8398,
      "gam": 8399,
      "تلم": 8400,
      "##ماس": 8401,
      "طيبة": 8402,
      "##oudi": 8403,
      "معل": 8404,
      "مسوول": 8405,
      "##الثة": 8406,
      "يجوز": 8407,
      "brk": 8408,
      "##سبحان": 8409,
      "cap": 8410,
      "derni": 8411,
      "😭😭😭😭": 8412,
      "لباس": 8413,
      "الرياضة": 8414,
      "الزمالك": 8415,
      "ورحمة": 8416,
      "🤔🤔": 8417,
      "القيامة": 8418,
      "lel": 8419,
      "شت": 8420,
      "وجع": 8421,
      "وجد": 8422,
      "##😂😂😂😂😂": 8423,
      "bc": 8424,
      "##ouni": 8425,
      "bac": 8426,
      "البقر": 8427,
      "نشري": 8428,
      "fort": 8429,
      "التم": 8430,
      "wan": 8431,
      "خسر": 8432,
      "راجلك": 8433,
      "lang": 8434,
      "ذه": 8435,
      "يقد": 8436,
      "😁😁😁": 8437,
      "مقابل": 8438,
      "genre": 8439,
      "ici": 8440,
      "mz": 8441,
      "تسي": 8442,
      "وراح": 8443,
      "##nah": 8444,
      "##ider": 8445,
      "وعن": 8446,
      "semoga": 8447,
      "تضرب": 8448,
      "##то": 8449,
      "الجاي": 8450,
      "وحش": 8451,
      "##قيقية": 8452,
      "للجميع": 8453,
      "##heb": 8454,
      "عباس": 8455,
      "طيح": 8456,
      "hta": 8457,
      "##war": 8458,
      "##7i": 8459,
      "التواصل": 8460,
      "زايد": 8461,
      "ندي": 8462,
      "الالم": 8463,
      "##زاق": 8464,
      "##فاف": 8465,
      "nchallah": 8466,
      "وعلي": 8467,
      "مجال": 8468,
      "kenza": 8469,
      "because": 8470,
      "الجما": 8471,
      "عسل": 8472,
      "##طلق": 8473,
      "##fiane": 8474,
      "##فان": 8475,
      "##فكير": 8476,
      "dieu": 8477,
      "شركة": 8478,
      "السو": 8479,
      "##انيين": 8480,
      "thing": 8481,
      "##77": 8482,
      "##ريعة": 8483,
      "##وفم": 8484,
      "conf": 8485,
      "عرس": 8486,
      "##vel": 8487,
      "##get": 8488,
      "قرب": 8489,
      "قوية": 8490,
      "##ونية": 8491,
      "يرحمك": 8492,
      "لحظة": 8493,
      "جيل": 8494,
      "##فاهم": 8495,
      "حكاي": 8496,
      "نساء": 8497,
      "3liha": 8498,
      "##غية": 8499,
      "##ms": 8500,
      "##ben": 8501,
      "السودان": 8502,
      "##ضم": 8503,
      "peux": 8504,
      "يقل": 8505,
      "##cun": 8506,
      "يسهل": 8507,
      "exam": 8508,
      "vois": 8509,
      "##ez": 8510,
      "القاضي": 8511,
      "ادري": 8512,
      "كملت": 8513,
      "##😭😭😭😭😭😭😭😭": 8514,
      "##ket": 8515,
      "بقيت": 8516,
      "ضربة": 8517,
      "##عليه": 8518,
      "الطبيب": 8519,
      "سوا": 8520,
      "تعلق": 8521,
      "الدور": 8522,
      "المبارك": 8523,
      "اا": 8524,
      "عشرة": 8525,
      "درس": 8526,
      "سيت": 8527,
      "##50": 8528,
      "heure": 8529,
      "دعاء": 8530,
      "عامل": 8531,
      "اللب": 8532,
      "##فيات": 8533,
      "##ـل": 8534,
      "الماضي": 8535,
      "##enti": 8536,
      "اقعد": 8537,
      "##لاقات": 8538,
      "فد": 8539,
      "regar": 8540,
      "حظ": 8541,
      "نوم": 8542,
      "عدو": 8543,
      "اخبار": 8544,
      "مرتو": 8545,
      "خليها": 8546,
      "سكان": 8547,
      "##مية": 8548,
      "##cal": 8549,
      "يكمل": 8550,
      "الدوري": 8551,
      "ارح": 8552,
      "تحم": 8553,
      "قراي": 8554,
      "##ech": 8555,
      "ey": 8556,
      "شب": 8557,
      "##اصيل": 8558,
      "قعدت": 8559,
      "bus": 8560,
      "شمال": 8561,
      "##lau": 8562,
      "تخيل": 8563,
      "pourquoi": 8564,
      "باسكو": 8565,
      "كويس": 8566,
      "اجتما": 8567,
      "##ماد": 8568,
      "قلبه": 8569,
      "##غى": 8570,
      "##سته": 8571,
      "الدفاع": 8572,
      "طويلة": 8573,
      "##حته": 8574,
      "النص": 8575,
      "بون": 8576,
      "الجو": 8577,
      "##راحه": 8578,
      "سبيل": 8579,
      "اعطي": 8580,
      "##افع": 8581,
      "يطلب": 8582,
      "3as": 8583,
      "vend": 8584,
      "first": 8585,
      "uk": 8586,
      "حلي": 8587,
      "شاهد": 8588,
      "كول": 8589,
      "الخوف": 8590,
      "##نتار": 8591,
      "hui": 8592,
      "ويعافي": 8593,
      "##روا": 8594,
      "##قاو": 8595,
      "رايع": 8596,
      "nhi": 8597,
      "التربية": 8598,
      "##طباء": 8599,
      "يشفيه": 8600,
      "##cia": 8601,
      "صنع": 8602,
      "وناس": 8603,
      "##عها": 8604,
      "##ouh": 8605,
      "عايشة": 8606,
      "يالله": 8607,
      "حدود": 8608,
      "ren": 8609,
      "بكم": 8610,
      "##ياج": 8611,
      "##اعت": 8612,
      "##ube": 8613,
      "كذ": 8614,
      "##ههههههه": 8615,
      "سمانة": 8616,
      "واغ": 8617,
      "اموال": 8618,
      "ديزاد": 8619,
      "nchlh": 8620,
      "##فتخر": 8621,
      "تمن": 8622,
      "nr": 8623,
      "الاكل": 8624,
      "تسب": 8625,
      "ياا": 8626,
      "##imo": 8627,
      "قبره": 8628,
      "الاطفال": 8629,
      "التغ": 8630,
      "its": 8631,
      "##واجه": 8632,
      "bts": 8633,
      "جمي": 8634,
      "##اااااا": 8635,
      "kb": 8636,
      "هدية": 8637,
      "chose": 8638,
      "عينك": 8639,
      "عرب": 8640,
      "##كيش": 8641,
      "ثلاثة": 8642,
      "esp": 8643,
      "صعيبة": 8644,
      "donne": 8645,
      "##زح": 8646,
      "للن": 8647,
      "متزوج": 8648,
      "##yn": 8649,
      "ماخ": 8650,
      "##غلبية": 8651,
      "نی": 8652,
      "##نتين": 8653,
      "francais": 8654,
      "##بياء": 8655,
      "##وسط": 8656,
      "zid": 8657,
      "##حسب": 8658,
      "##💙💙": 8659,
      "amin": 8660,
      "التعبير": 8661,
      "الزمان": 8662,
      "aura": 8663,
      "after": 8664,
      "جزا": 8665,
      "کرد": 8666,
      "مدر": 8667,
      "حقك": 8668,
      "##سنط": 8669,
      "##فيس": 8670,
      "##الكتر": 8671,
      "الابت": 8672,
      "kah": 8673,
      "##ep": 8674,
      "##حتها": 8675,
      "##موت": 8676,
      "##شيء": 8677,
      "##وانات": 8678,
      "lin": 8679,
      "قع": 8680,
      "##dam": 8681,
      "##yan": 8682,
      "##tice": 8683,
      "درب": 8684,
      "##ᅡ라": 8685,
      "bha": 8686,
      "فمن": 8687,
      "الانصار": 8688,
      "بالذ": 8689,
      "##بارات": 8690,
      "##خصوص": 8691,
      "يحفظكم": 8692,
      "الطبي": 8693,
      "##kkkkkkkk": 8694,
      "##اريس": 8695,
      "ame": 8696,
      "اطفال": 8697,
      "hm": 8698,
      "ديد": 8699,
      "##🥰🥰": 8700,
      "game": 8701,
      "mek": 8702,
      "##شش": 8703,
      "alla": 8704,
      "وبعدين": 8705,
      "العبد": 8706,
      "##oulou": 8707,
      "しい": 8708,
      "اشخاص": 8709,
      "عون": 8710,
      "##غال": 8711,
      "##cra": 8712,
      "jay": 8713,
      "wk": 8714,
      "كوك": 8715,
      "راحة": 8716,
      "بلادك": 8717,
      "يوصل": 8718,
      "واسكنه": 8719,
      "اليس": 8720,
      "maria": 8721,
      "##ركه": 8722,
      "الفكرة": 8723,
      "##اصي": 8724,
      "##osa": 8725,
      "قلنا": 8726,
      "nahi": 8727,
      "للام": 8728,
      "##اجل": 8729,
      "vote": 8730,
      "##ركب": 8731,
      "##ato": 8732,
      "##قولة": 8733,
      "متابع": 8734,
      "المكان": 8735,
      "khlah": 8736,
      "##bn": 8737,
      "##んな": 8738,
      "خلينا": 8739,
      "harki": 8740,
      "##وكم": 8741,
      "mari": 8742,
      "الاخرة": 8743,
      "tani": 8744,
      "دكتور": 8745,
      "صيام": 8746,
      "سبحانو": 8747,
      "صارت": 8748,
      "club": 8749,
      "jadi": 8750,
      "##zar": 8751,
      "##iro": 8752,
      "ind": 8753,
      "الاخوان": 8754,
      "##قيلا": 8755,
      "المسلم": 8756,
      "bis": 8757,
      "عدة": 8758,
      "##cre": 8759,
      "##bu": 8760,
      "الجنه": 8761,
      "parler": 8762,
      "nh": 8763,
      "てす": 8764,
      "##ـر": 8765,
      "لوحد": 8766,
      "برحمتك": 8767,
      "##سخ": 8768,
      "انواع": 8769,
      "يمثل": 8770,
      "eur": 8771,
      "حدا": 8772,
      "دفع": 8773,
      "sure": 8774,
      "etat": 8775,
      "ih": 8776,
      "##ارو": 8777,
      "##ايهم": 8778,
      "اوروبا": 8779,
      "jal": 8780,
      "pan": 8781,
      "##fu": 8782,
      "##خول": 8783,
      "demo": 8784,
      "الخاصة": 8785,
      "##anes": 8786,
      "pic": 8787,
      "صحة": 8788,
      "##ـت": 8789,
      "##ورال": 8790,
      "يتزوج": 8791,
      "##ظف": 8792,
      "##ايش": 8793,
      "يااا": 8794,
      "##ولى": 8795,
      "homme": 8796,
      "aja": 8797,
      "ina": 8798,
      "##لاصة": 8799,
      "المدرب": 8800,
      "الالكتر": 8801,
      "رايحين": 8802,
      "مرحلة": 8803,
      "##vais": 8804,
      "الشخصية": 8805,
      "##زات": 8806,
      "##ary": 8807,
      "##coup": 8808,
      "##تيم": 8809,
      "الهلال": 8810,
      "عوض": 8811,
      "##lich": 8812,
      "الاشياء": 8813,
      "कर": 8814,
      "وبرك": 8815,
      "نجاح": 8816,
      "again": 8817,
      "sema": 8818,
      "منيش": 8819,
      "مجموعة": 8820,
      "long": 8821,
      "uma": 8822,
      "البل": 8823,
      "moins": 8824,
      "taw": 8825,
      "##ـك": 8826,
      "rach": 8827,
      "ساعدوني": 8828,
      "##مكن": 8829,
      "##وتو": 8830,
      "##ستا": 8831,
      "##اهدة": 8832,
      "احترم": 8833,
      "tat": 8834,
      "تاخذ": 8835,
      "jab": 8836,
      "avez": 8837,
      "ثقة": 8838,
      "##رجات": 8839,
      "الطفل": 8840,
      "اللعب": 8841,
      "تهد": 8842,
      "منطقة": 8843,
      "وهران": 8844,
      "inv": 8845,
      "##🤣🤣🤣🤣🤣🤣🤣🤣": 8846,
      "يزيدو": 8847,
      "فخر": 8848,
      "##ابرات": 8849,
      "ديم": 8850,
      "كارثة": 8851,
      "الحدود": 8852,
      "grou": 8853,
      "کو": 8854,
      "##متع": 8855,
      "wlad": 8856,
      "##tiv": 8857,
      "##dh": 8858,
      "##ouna": 8859,
      "ميزان": 8860,
      "اسمو": 8861,
      "sw": 8862,
      "سعو": 8863,
      "##ومين": 8864,
      "##ويات": 8865,
      "متك": 8866,
      "##قار": 8867,
      "##itre": 8868,
      "also": 8869,
      "pass": 8870,
      "قاعدين": 8871,
      "##قلة": 8872,
      "بزااا": 8873,
      "سوق": 8874,
      "##رتاح": 8875,
      "حياته": 8876,
      "##kin": 8877,
      "البنت": 8878,
      "بحال": 8879,
      "مصالح": 8880,
      "الجامعية": 8881,
      "una": 8882,
      "الكي": 8883,
      "اللاعبين": 8884,
      "##ieur": 8885,
      "##رضي": 8886,
      "تربي": 8887,
      "को": 8888,
      "##قتها": 8889,
      "journal": 8890,
      "lem": 8891,
      "##😔😔": 8892,
      "معلوم": 8893,
      "الوحيدة": 8894,
      "city": 8895,
      "tn": 8896,
      "ثان": 8897,
      "بهذه": 8898,
      "حج": 8899,
      "chkoun": 8900,
      "انتهى": 8901,
      "الامير": 8902,
      "فرحة": 8903,
      "##عجب": 8904,
      "##قوة": 8905,
      "الشرف": 8906,
      "الاجتماعي": 8907,
      "##طح": 8908,
      "والمع": 8909,
      "للان": 8910,
      "##عوه": 8911,
      "##طات": 8912,
      "##ede": 8913,
      "ميس": 8914,
      "u000": 8915,
      "##gl": 8916,
      "بناء": 8917,
      "##7ab": 8918,
      "##اثر": 8919,
      "##تيجة": 8920,
      "##فيت": 8921,
      "يسلمك": 8922,
      "koun": 8923,
      "##ساس": 8924,
      "میں": 8925,
      "خرا": 8926,
      "اهلا": 8927,
      "musul": 8928,
      "26": 8929,
      "خاف": 8930,
      "ارها": 8931,
      "ظه": 8932,
      "لسه": 8933,
      "##اهة": 8934,
      "##طرح": 8935,
      "مزية": 8936,
      "##op": 8937,
      "امت": 8938,
      "فالك": 8939,
      "eff": 8940,
      "لغير": 8941,
      "##واحي": 8942,
      "اكتش": 8943,
      "ارى": 8944,
      "نرج": 8945,
      "نلعب": 8946,
      "question": 8947,
      "jours": 8948,
      "arrete": 8949,
      "الفردوس": 8950,
      "نام": 8951,
      "##https": 8952,
      "ويرزق": 8953,
      "ساب": 8954,
      "cheri": 8955,
      "فاللهم": 8956,
      "كيفك": 8957,
      "lha": 8958,
      "ورق": 8959,
      "ملق": 8960,
      "##رال": 8961,
      "النادي": 8962,
      "air": 8963,
      "يرفع": 8964,
      "##قولك": 8965,
      "##طفى": 8966,
      "خوك": 8967,
      "##روال": 8968,
      "المسجد": 8969,
      "num": 8970,
      "##pha": 8971,
      "نية": 8972,
      "##حح": 8973,
      "مشاعر": 8974,
      "60": 8975,
      "سلي": 8976,
      "يعاون": 8977,
      "ضيق": 8978,
      "naw": 8979,
      "ظل": 8980,
      "ناصر": 8981,
      "##زك": 8982,
      "##زلة": 8983,
      "##المي": 8984,
      "الماكلة": 8985,
      "##ore": 8986,
      "الغالي": 8987,
      "##ومو": 8988,
      "right": 8989,
      "امة": 8990,
      "saiki": 8991,
      "la3": 8992,
      "sami": 8993,
      "##خصص": 8994,
      "مقاط": 8995,
      "tete": 8996,
      "تفس": 8997,
      "##قالك": 8998,
      "##قولو": 8999,
      "##char": 9000,
      "بسيط": 9001,
      "pouvoir": 9002,
      "غالط": 9003,
      "مستمر": 9004,
      "خالتي": 9005,
      "يعد": 9006,
      "##ways": 9007,
      "most": 9008,
      "##ira": 9009,
      "##توها": 9010,
      "##اهرات": 9011,
      "##وزينة": 9012,
      "politi": 9013,
      "##んた": 9014,
      "الحو": 9015,
      "مثال": 9016,
      "سلمان": 9017,
      "bulan": 9018,
      "yh": 9019,
      "##30": 9020,
      "##لاوة": 9021,
      "المظ": 9022,
      "##كمة": 9023,
      "##فيك": 9024,
      "kak": 9025,
      "##نج": 9026,
      "##하": 9027,
      "chah": 9028,
      "سعيدة": 9029,
      "lat": 9030,
      "##سما": 9031,
      "يشبه": 9032,
      "بينهم": 9033,
      "الارهاب": 9034,
      "svp": 9035,
      "chwiya": 9036,
      "عقلي": 9037,
      "##وند": 9038,
      "الكار": 9039,
      "رايي": 9040,
      "page": 9041,
      "سياسي": 9042,
      "للص": 9043,
      "fatima": 9044,
      "last": 9045,
      "magh": 9046,
      "عارفين": 9047,
      "very": 9048,
      "##지": 9049,
      "should": 9050,
      "اسوء": 9051,
      "بطل": 9052,
      "سقس": 9053,
      "فهذا": 9054,
      "##ريين": 9055,
      "resp": 9056,
      "##خلط": 9057,
      "khalini": 9058,
      "رياضي": 9059,
      "المسلسل": 9060,
      "##ثم": 9061,
      "##ream": 9062,
      "##اليش": 9063,
      "تحبو": 9064,
      "میک": 9065,
      "واغفر": 9066,
      "##روها": 9067,
      "الطريقة": 9068,
      "ونع": 9069,
      "معندي": 9070,
      "does": 9071,
      "sa7": 9072,
      "##ᆼ아": 9073,
      "blad": 9074,
      "wch": 9075,
      "خدام": 9076,
      "الحساب": 9077,
      "##بدل": 9078,
      "compte": 9079,
      "ومفيش": 9080,
      "tour": 9081,
      "##ورين": 9082,
      "##tique": 9083,
      "مفتو": 9084,
      "ليكم": 9085,
      "سعود": 9086,
      "nb": 9087,
      "حاد": 9088,
      "مافيهاش": 9089,
      "ven": 9090,
      "##ign": 9091,
      "##نتها": 9092,
      "dal": 9093,
      "##قاء": 9094,
      "##لاج": 9095,
      "الابطال": 9096,
      "##فعة": 9097,
      "ولاو": 9098,
      "يعم": 9099,
      "الوباء": 9100,
      "مفي": 9101,
      "وري": 9102,
      "المرت": 9103,
      "paris": 9104,
      "بول": 9105,
      "بحي": 9106,
      "##ناب": 9107,
      "prom": 9108,
      "od": 9109,
      "vic": 9110,
      "تحقيق": 9111,
      "صبح": 9112,
      "قولو": 9113,
      "##ience": 9114,
      "فاذا": 9115,
      "##حتي": 9116,
      "##のて": 9117,
      "##سطيني": 9118,
      "##برك": 9119,
      "##هود": 9120,
      "##كمش": 9121,
      "come": 9122,
      "السلطان": 9123,
      "27": 9124,
      "تقدم": 9125,
      "کار": 9126,
      "الثقة": 9127,
      "mara": 9128,
      "##ثال": 9129,
      "بقا": 9130,
      "الشرطة": 9131,
      "باح": 9132,
      "##سلم": 9133,
      "##uri": 9134,
      "الليلة": 9135,
      "بصوت": 9136,
      "##هدة": 9137,
      "vol": 9138,
      "😑😑": 9139,
      "tjr": 9140,
      "start": 9141,
      "##نتخب": 9142,
      "الكلاب": 9143,
      "لقمة": 9144,
      "##iiiiiiii": 9145,
      "تند": 9146,
      "يقدم": 9147,
      "##oli": 9148,
      "معد": 9149,
      "##نتش": 9150,
      "##ضيق": 9151,
      "coup": 9152,
      "الخليج": 9153,
      "wana": 9154,
      "##لابية": 9155,
      "اعم": 9156,
      "فور": 9157,
      "وهل": 9158,
      "زيطوط": 9159,
      "70": 9160,
      "sb": 9161,
      "الفقر": 9162,
      "العسكرية": 9163,
      "ثورة": 9164,
      "ستكون": 9165,
      "ودير": 9166,
      "ثانيا": 9167,
      "سماك": 9168,
      "yd": 9169,
      "محل": 9170,
      "الثق": 9171,
      "ملف": 9172,
      "يعجب": 9173,
      "yan": 9174,
      "وخلي": 9175,
      "كثرة": 9176,
      "yam": 9177,
      "خان": 9178,
      "##قولي": 9179,
      "المدير": 9180,
      "##دعاء": 9181,
      "لفر": 9182,
      "mach": 9183,
      "شكوبي": 9184,
      "lia": 9185,
      "##وشة": 9186,
      "طالع": 9187,
      "##ella": 9188,
      "اعلى": 9189,
      "abder": 9190,
      "افكار": 9191,
      "نرجع": 9192,
      "hope": 9193,
      "عقلك": 9194,
      "يلحق": 9195,
      "خصوصا": 9196,
      "sbah": 9197,
      "زعل": 9198,
      "طف": 9199,
      "ورد": 9200,
      "تكوني": 9201,
      "##زاز": 9202,
      "ديت": 9203,
      "ومي": 9204,
      "يقتل": 9205,
      "##jal": 9206,
      "تصو": 9207,
      "bisa": 9208,
      "شان": 9209,
      "اند": 9210,
      "incha": 9211,
      "توقف": 9212,
      "الجمال": 9213,
      "krah": 9214,
      "lim": 9215,
      "pere": 9216,
      "##yah": 9217,
      "فالب": 9218,
      "داخ": 9219,
      "حياتنا": 9220,
      "فري": 9221,
      "وحب": 9222,
      "##يلي": 9223,
      "ياسر": 9224,
      "never": 9225,
      "يصر": 9226,
      "##يرين": 9227,
      "ومبعد": 9228,
      "حرم": 9229,
      "حضر": 9230,
      "يهدرو": 9231,
      "inst": 9232,
      "همه": 9233,
      "کن": 9234,
      "great": 9235,
      "##rer": 9236,
      "##rit": 9237,
      "حبك": 9238,
      "zer": 9239,
      "ناض": 9240,
      "مرو": 9241,
      "##gine": 9242,
      "الرياضي": 9243,
      "##رها": 9244,
      "##ظه": 9245,
      "임영웅ᄋ": 9246,
      "المستعان": 9247,
      "bre": 9248,
      "vers": 9249,
      "جرب": 9250,
      "##aria": 9251,
      "##ets": 9252,
      "بلو": 9253,
      "تتك": 9254,
      "ich": 9255,
      "سليم": 9256,
      "واض": 9257,
      "٢٠": 9258,
      "##سيو": 9259,
      "الديم": 9260,
      "beaucoup": 9261,
      "wesh": 9262,
      "شايف": 9263,
      "فص": 9264,
      "مفهمتش": 9265,
      "كتبت": 9266,
      "تستاهل": 9267,
      "موسى": 9268,
      "news": 9269,
      "غس": 9270,
      "یک": 9271,
      "##zam": 9272,
      "##كيك": 9273,
      "اقد": 9274,
      "عقول": 9275,
      "يعط": 9276,
      "خطا": 9277,
      "سيارة": 9278,
      "3ich": 9279,
      "ant": 9280,
      "##ذاك": 9281,
      "وتب": 9282,
      "مافيه": 9283,
      "##ob": 9284,
      "المتوفي": 9285,
      "##dz": 9286,
      "##ريض": 9287,
      "ماق": 9288,
      "نورمالمو": 9289,
      "los": 9290,
      "fami": 9291,
      "شهيد": 9292,
      "madr": 9293,
      "النع": 9294,
      "عطيتك": 9295,
      "u0001": 9296,
      "cra": 9297,
      "val": 9298,
      "واله": 9299,
      "aujour": 9300,
      "##يييييييي": 9301,
      "direct": 9302,
      "##ناسبة": 9303,
      "نعاود": 9304,
      "hh": 9305,
      "wt": 9306,
      "##حتكم": 9307,
      "ضيقة": 9308,
      "iz": 9309,
      "كرب": 9310,
      "##ster": 9311,
      "today": 9312,
      "بسب": 9313,
      "يجمع": 9314,
      "الاحترام": 9315,
      "تجري": 9316,
      "لايف": 9317,
      "##اذا": 9318,
      "نروحو": 9319,
      "certa": 9320,
      "حقيقي": 9321,
      "نسبة": 9322,
      "وكاين": 9323,
      "الظروف": 9324,
      "differ": 9325,
      "قديمة": 9326,
      "##jb": 9327,
      "الوجه": 9328,
      "داره": 9329,
      "daw": 9330,
      "تتم": 9331,
      "houda": 9332,
      "##اولة": 9333,
      "##يرك": 9334,
      "الحارث": 9335,
      "التر": 9336,
      "##حيط": 9337,
      "##ush": 9338,
      "اسمك": 9339,
      "ihab": 9340,
      "حلقة": 9341,
      "ناكل": 9342,
      "##dad": 9343,
      "##ايلي": 9344,
      "##ستاذ": 9345,
      "kt": 9346,
      "##ls": 9347,
      "##گر": 9348,
      "yacine": 9349,
      "مستقبل": 9350,
      "actu": 9351,
      "1000": 9352,
      "tech": 9353,
      "فاق": 9354,
      "يخت": 9355,
      "guer": 9356,
      "حليب": 9357,
      "غل": 9358,
      "##yad": 9359,
      "n7eb": 9360,
      "اردوغان": 9361,
      "dam": 9362,
      "عود": 9363,
      "##عونا": 9364,
      "##yas": 9365,
      "##خد": 9366,
      "المحت": 9367,
      "درجة": 9368,
      "##وسي": 9369,
      "الصيام": 9370,
      "##이": 9371,
      "##عبر": 9372,
      "ويست": 9373,
      "##عوض": 9374,
      "week": 9375,
      "sale": 9376,
      "cheb": 9377,
      "chw": 9378,
      "omar": 9379,
      "زب": 9380,
      "##3ir": 9381,
      "منع": 9382,
      "##ouha": 9383,
      "##ياح": 9384,
      "take": 9385,
      "##tra": 9386,
      "bih": 9387,
      "tina": 9388,
      "##فيل": 9389,
      "watch": 9390,
      "بتح": 9391,
      "نبكي": 9392,
      "##سنطينة": 9393,
      "فاط": 9394,
      "##ils": 9395,
      "seule": 9396,
      "##cham": 9397,
      "kita": 9398,
      "на": 9399,
      "ارجع": 9400,
      "histoire": 9401,
      "لعم": 9402,
      "ماعندي": 9403,
      "هههههههههههه": 9404,
      "bark": 9405,
      "45": 9406,
      "##تة": 9407,
      "والز": 9408,
      "بحكم": 9409,
      "دوله": 9410,
      "##ﺎﻟ": 9411,
      "القصة": 9412,
      "##وته": 9413,
      "مسمي": 9414,
      "rec": 9415,
      "جهنم": 9416,
      "##سبه": 9417,
      "نبدا": 9418,
      "##قيمات": 9419,
      "ويحفظ": 9420,
      "aur": 9421,
      "##ضبط": 9422,
      "fac": 9423,
      "gou": 9424,
      "ااا": 9425,
      "##لج": 9426,
      "##حوا": 9427,
      "ساعدة": 9428,
      "amira": 9429,
      "##chof": 9430,
      "##سيلة": 9431,
      "التد": 9432,
      "الارها": 9433,
      "يكم": 9434,
      "##bas": 9435,
      "fre": 9436,
      "fah": 9437,
      "ديراكت": 9438,
      "يجيك": 9439,
      "##ذو": 9440,
      "تبين": 9441,
      "##قيقه": 9442,
      "unt": 9443,
      "ait": 9444,
      "##برا": 9445,
      "السابق": 9446,
      "يروحو": 9447,
      "قطع": 9448,
      "##واقع": 9449,
      "##نحاو": 9450,
      "خرشة": 9451,
      "по": 9452,
      "لاش": 9453,
      "تبا": 9454,
      "##orts": 9455,
      "##ديش": 9456,
      "تلقا": 9457,
      "kas": 9458,
      "##صلي": 9459,
      "##انس": 9460,
      "عبدالله": 9461,
      "hommes": 9462,
      "ريت": 9463,
      "قلة": 9464,
      "الاجر": 9465,
      "السم": 9466,
      "const": 9467,
      "وبعدها": 9468,
      "توق": 9469,
      "الفار": 9470,
      "facebook": 9471,
      "##فز": 9472,
      "free": 9473,
      "اثر": 9474,
      "##zer": 9475,
      "فالدار": 9476,
      "##زيدش": 9477,
      "puis": 9478,
      "##ns": 9479,
      "aujourd": 9480,
      "font": 9481,
      "##ats": 9482,
      "خونا": 9483,
      "مخلو": 9484,
      "طاكسي": 9485,
      "يكت": 9486,
      "الشك": 9487,
      "الخزرج": 9488,
      "work": 9489,
      "meilleur": 9490,
      "3l": 9491,
      "fle": 9492,
      "sun": 9493,
      "تشي": 9494,
      "##قينا": 9495,
      "tot": 9496,
      "president": 9497,
      "sinon": 9498,
      "##خرة": 9499,
      "القدر": 9500,
      "##taw": 9501,
      "brady": 9502,
      "عقد": 9503,
      "فلو": 9504,
      "متت": 9505,
      "تخصص": 9506,
      "فرحت": 9507,
      "maroc": 9508,
      "moun": 9509,
      "##امية": 9510,
      "##als": 9511,
      "##جبد": 9512,
      "وابت": 9513,
      "اكرم": 9514,
      "رضا": 9515,
      "زيادة": 9516,
      "لايك": 9517,
      "mc": 9518,
      "yem": 9519,
      "##سيك": 9520,
      "الوق": 9521,
      "السعيد": 9522,
      "بيننا": 9523,
      "##حكاية": 9524,
      "شار": 9525,
      "فمك": 9526,
      "##استغفر": 9527,
      "ملتقيات": 9528,
      "جس": 9529,
      "الخونة": 9530,
      "bouch": 9531,
      "بزااف": 9532,
      "rahom": 9533,
      "ماكانش": 9534,
      "دجانة": 9535,
      "كري": 9536,
      "والاس": 9537,
      "الوج": 9538,
      "##bin": 9539,
      "##ومية": 9540,
      "nw": 9541,
      "##ناريو": 9542,
      "الصالحة": 9543,
      "##فته": 9544,
      "سا": 9545,
      "سند": 9546,
      "insta": 9547,
      "لاعبين": 9548,
      "ثبت": 9549,
      "##ful": 9550,
      "safi": 9551,
      "fav": 9552,
      "ماكلة": 9553,
      "بالجزاير": 9554,
      "يتق": 9555,
      "##uz": 9556,
      "ويلهم": 9557,
      "##resse": 9558,
      "تغسل": 9559,
      "المستقبل": 9560,
      "sil": 9561,
      "ws": 9562,
      "##اصة": 9563,
      "##ريع": 9564,
      "reve": 9565,
      "hala": 9566,
      "نحو": 9567,
      "jdid": 9568,
      "ذو": 9569,
      "##شغل": 9570,
      "امتحان": 9571,
      "##cep": 9572,
      "##yorum": 9573,
      "equipe": 9574,
      "call": 9575,
      "##cs": 9576,
      "##12": 9577,
      "القهوة": 9578,
      "enta": 9579,
      "star": 9580,
      "قاله": 9581,
      "doit": 9582,
      "##iman": 9583,
      "🤣🤣🤣🤣🤣": 9584,
      "retour": 9585,
      "بالر": 9586,
      "##ssible": 9587,
      "femme": 9588,
      "sens": 9589,
      "١٠": 9590,
      "لاك": 9591,
      "وكنت": 9592,
      "hk": 9593,
      "جوز": 9594,
      "##يتة": 9595,
      "خليه": 9596,
      "saya": 9597,
      "ماراح": 9598,
      "نقراو": 9599,
      "stop": 9600,
      "اسعد": 9601,
      "لكنه": 9602,
      "kalau": 9603,
      "حكام": 9604,
      "هدو": 9605,
      "التخ": 9606,
      "ساعه": 9607,
      "##خرا": 9608,
      "##ula": 9609,
      "القوة": 9610,
      "وتم": 9611,
      "اعمل": 9612,
      "بيكم": 9613,
      "سلمية": 9614,
      "دايم": 9615,
      "##حترام": 9616,
      "##يبو": 9617,
      "دارك": 9618,
      "не": 9619,
      "ds": 9620,
      "##یا": 9621,
      "bela": 9622,
      "يشري": 9623,
      "كفاه": 9624,
      "##بلها": 9625,
      "شعار": 9626,
      "mimi": 9627,
      "##3ab": 9628,
      "##arak": 9629,
      "##اءة": 9630,
      "يوص": 9631,
      "ادارة": 9632,
      "غرب": 9633,
      "##りか": 9634,
      "##ouz": 9635,
      "العار": 9636,
      "##يهة": 9637,
      "حياتو": 9638,
      "وهوما": 9639,
      "##fli": 9640,
      "العالي": 9641,
      "god": 9642,
      "اشد": 9643,
      "mh": 9644,
      "tellement": 9645,
      "الشاب": 9646,
      "النية": 9647,
      "psq": 9648,
      "80": 9649,
      "حركة": 9650,
      "خالي": 9651,
      "الحض": 9652,
      "nem": 9653,
      "لون": 9654,
      "##ken": 9655,
      "##ثمان": 9656,
      "##عدة": 9657,
      "يدك": 9658,
      "##medi": 9659,
      "ورقة": 9660,
      "کر": 9661,
      "##😥😥": 9662,
      "##يكة": 9663,
      "joue": 9664,
      "##ef": 9665,
      "نخاف": 9666,
      "##xi": 9667,
      "التك": 9668,
      "فضلك": 9669,
      "النظ": 9670,
      "يحسب": 9671,
      "نشاله": 9672,
      "المملكة": 9673,
      "الجنوب": 9674,
      "##نتك": 9675,
      "##لبك": 9676,
      "يملك": 9677,
      "مريضة": 9678,
      "##بني": 9679,
      "##kou": 9680,
      "البو": 9681,
      "toutes": 9682,
      "yb": 9683,
      "يتقبل": 9684,
      "الخبز": 9685,
      "kl": 9686,
      "غاي": 9687,
      "وظ": 9688,
      "##cz": 9689,
      "ماعن": 9690,
      "والناس": 9691,
      "##rej": 9692,
      "rea": 9693,
      "الثالث": 9694,
      "juga": 9695,
      "هدرة": 9696,
      "طلق": 9697,
      "نقلك": 9698,
      "amis": 9699,
      "going": 9700,
      "تكت": 9701,
      "##gs": 9702,
      "بوش": 9703,
      "##انسي": 9704,
      "الداخ": 9705,
      "يعاود": 9706,
      "بعضهم": 9707,
      "الميد": 9708,
      "تعم": 9709,
      "اكر": 9710,
      "سرا": 9711,
      "etais": 9712,
      "jak": 9713,
      "##سنا": 9714,
      "demain": 9715,
      "law": 9716,
      "الامتحان": 9717,
      "حافظ": 9718,
      "فرض": 9719,
      "##سی": 9720,
      "##ball": 9721,
      "##ثرة": 9722,
      "تعرفي": 9723,
      "اصعب": 9724,
      "sub": 9725,
      "السياسية": 9726,
      "sana": 9727,
      "##ть": 9728,
      "pc": 9729,
      "vont": 9730,
      "##وهاش": 9731,
      "2017": 9732,
      "ملاين": 9733,
      "की": 9734,
      "العو": 9735,
      "معكم": 9736,
      "ايمان": 9737,
      "##اضر": 9738,
      "lie": 9739,
      "يصل": 9740,
      "##ole": 9741,
      "##ولوج": 9742,
      "cent": 9743,
      "dji": 9744,
      "##فنا": 9745,
      "biha": 9746,
      "لاحول": 9747,
      "mw": 9748,
      "دولار": 9749,
      "other": 9750,
      "جنب": 9751,
      "##شون": 9752,
      "##bl": 9753,
      "العرش": 9754,
      "عملت": 9755,
      "تستحق": 9756,
      "بعيدا": 9757,
      "nchalah": 9758,
      "mine": 9759,
      "##ولكم": 9760,
      "يكونو": 9761,
      "ساهلة": 9762,
      "ضعيف": 9763,
      "تخت": 9764,
      "##طوه": 9765,
      "macha3ir": 9766,
      "##ريل": 9767,
      "##سيم": 9768,
      "avait": 9769,
      "05": 9770,
      "##onne": 9771,
      "يحاول": 9772,
      "تستطيع": 9773,
      "rub": 9774,
      "اروع": 9775,
      "تحمل": 9776,
      "حرة": 9777,
      "😢😢": 9778,
      "يخرجو": 9779,
      "يهديكم": 9780,
      "يخدمو": 9781,
      "##mah": 9782,
      "##of": 9783,
      "##ذين": 9784,
      "##جرد": 9785,
      "الكلمات": 9786,
      "##هوش": 9787,
      "##ра": 9788,
      "الكذب": 9789,
      "truc": 9790,
      "allez": 9791,
      "بغي": 9792,
      "جنة": 9793,
      "اسباب": 9794,
      "tant": 9795,
      "##cen": 9796,
      "الاط": 9797,
      "ner": 9798,
      "اجي": 9799,
      "يحمي": 9800,
      "شوفو": 9801,
      "بكر": 9802,
      "##عباد": 9803,
      "rent": 9804,
      "##انوت": 9805,
      "العيش": 9806,
      "ونتي": 9807,
      "commentaire": 9808,
      "lazem": 9809,
      "##خم": 9810,
      "raison": 9811,
      "mid": 9812,
      "تفتح": 9813,
      "زعمه": 9814,
      "مساب": 9815,
      "الهدف": 9816,
      "3ad": 9817,
      "##غات": 9818,
      "الصحيح": 9819,
      "walo": 9820,
      "hn": 9821,
      "برب": 9822,
      "نوفم": 9823,
      "under": 9824,
      "وامى": 9825,
      "المز": 9826,
      "مدريد": 9827,
      "وجميع": 9828,
      "تربية": 9829,
      "كوني": 9830,
      "##jar": 9831,
      "الهي": 9832,
      "عقلية": 9833,
      "شرط": 9834,
      "gros": 9835,
      "ماعرف": 9836,
      "روعة": 9837,
      "نقعد": 9838,
      "السيسي": 9839,
      "##pre": 9840,
      "بالام": 9841,
      "الجماعة": 9842,
      "هادوك": 9843,
      "وكانت": 9844,
      "##طورة": 9845,
      "##но": 9846,
      "cause": 9847,
      "هاو": 9848,
      "##ilo": 9849,
      "##ना": 9850,
      "يخص": 9851,
      "رواحكم": 9852,
      "بقوة": 9853,
      "cli": 9854,
      "وجهي": 9855,
      "try": 9856,
      "droit": 9857,
      "بسك": 9858,
      "##bih": 9859,
      "برحمته": 9860,
      "باريس": 9861,
      "تهم": 9862,
      "الصيد": 9863,
      "كور": 9864,
      "##ماشاء": 9865,
      "امان": 9866,
      "القبر": 9867,
      "صاب": 9868,
      "##هز": 9869,
      "##zak": 9870,
      "##lid": 9871,
      "##lil": 9872,
      "##ربين": 9873,
      "lala": 9874,
      "برای": 9875,
      "tim": 9876,
      "جنان": 9877,
      "##علاه": 9878,
      "تقلي": 9879,
      "ريحة": 9880,
      "##んと": 9881,
      "ياج": 9882,
      "3end": 9883,
      "بروح": 9884,
      "امه": 9885,
      "##unes": 9886,
      "المطر": 9887,
      "تشبه": 9888,
      "تطلب": 9889,
      "probleme": 9890,
      "ليت": 9891,
      "ادعي": 9892,
      "##خطرة": 9893,
      "الورد": 9894,
      "##ايها": 9895,
      "##cht": 9896,
      "##رفد": 9897,
      "قيل": 9898,
      "##راني": 9899,
      "بالفر": 9900,
      "غيرها": 9901,
      "موعد": 9902,
      "الفرحة": 9903,
      "wahda": 9904,
      "فكل": 9905,
      "##🤍🤍": 9906,
      "الموج": 9907,
      "always": 9908,
      "##dra": 9909,
      "نيتك": 9910,
      "انفسهم": 9911,
      "aid": 9912,
      "las": 9913,
      "هست": 9914,
      "البرد": 9915,
      "لاباج": 9916,
      "بمعنى": 9917,
      "وليست": 9918,
      "3om": 9919,
      "فنان": 9920,
      "يحوس": 9921,
      "وجهه": 9922,
      "نسالك": 9923,
      "تكم": 9924,
      "##لحق": 9925,
      "##ici": 9926,
      "الاصل": 9927,
      "mot": 9928,
      "اقبل": 9929,
      "الثلاث": 9930,
      "public": 9931,
      "pq": 9932,
      "جارك": 9933,
      "لى": 9934,
      "اعلان": 9935,
      "khaw": 9936,
      "بليز": 9937,
      "تدري": 9938,
      "عارفة": 9939,
      "lan": 9940,
      "##ital": 9941,
      "king": 9942,
      "nuit": 9943,
      "يثبت": 9944,
      "envo": 9945,
      "دينار": 9946,
      "والعافية": 9947,
      "خالص": 9948,
      "journee": 9949,
      "##♥♥♥♥": 9950,
      "نكره": 9951,
      "بيع": 9952,
      "بيض": 9953,
      "youtube": 9954,
      "دل": 9955,
      "وصح": 9956,
      "mok": 9957,
      "rayah": 9958,
      "دوا": 9959,
      "النت": 9960,
      "##راها": 9961,
      "kya": 9962,
      "يذكر": 9963,
      "##ril": 9964,
      "##ويها": 9965,
      "ابطال": 9966,
      "لاننا": 9967,
      "المسوولين": 9968,
      "جيد": 9969,
      "وراه": 9970,
      "##وبيل": 9971,
      "##نيين": 9972,
      "سف": 9973,
      "comple": 9974,
      "حلوه": 9975,
      "yad": 9976,
      "##نبي": 9977,
      "##جاوز": 9978,
      "معظم": 9979,
      "راقد": 9980,
      "نحط": 9981,
      "تصلي": 9982,
      "حمار": 9983,
      "نتيجة": 9984,
      "500": 9985,
      "hari": 9986,
      "الصد": 9987,
      "تاعكم": 9988,
      "into": 9989,
      "قار": 9990,
      "##بحر": 9991,
      "بحاجة": 9992,
      "اى": 9993,
      "نحوس": 9994,
      "عاون": 9995,
      "اودي": 9996,
      "غزة": 9997,
      "قنوات": 9998,
      "هاش": 9999,
      "##17": 10000,
      "بينما": 10001,
      "##شع": 10002,
      "##mani": 10003,
      "##ris": 10004,
      "تمام": 10005,
      "الظلم": 10006,
      "##가": 10007,
      "بالا": 10008,
      "##لهاش": 10009,
      "يجازي": 10010,
      "صدقة": 10011,
      "وبركاته": 10012,
      "##ved": 10013,
      "يتفرج": 10014,
      "تكذب": 10015,
[...]
